{
  "version": "1.0",
  "truncation": null,
  "padding": null,
  "added_tokens": [
    {
      "id": 0,
      "content": "<|endoftext|>",
      "single_word": false,
      "lstrip": false,
      "rstrip": false,
      "normalized": false,
      "special": true
    },
    {
      "id": 1,
      "content": "<|padding|>",
      "single_word": false,
      "lstrip": false,
      "rstrip": false,
      "normalized": false,
      "special": true
    },
    {
      "id": 50254,
      "content": "                        ",
      "single_word": false,
      "lstrip": false,
      "rstrip": false,
      "normalized": true,
      "special": false
    },
    {
      "id": 50255,
      "content": "                       ",
      "single_word": false,
      "lstrip": false,
      "rstrip": false,
      "normalized": true,
      "special": false
    },
    {
      "id": 50256,
      "content": "                      ",
      "single_word": false,
      "lstrip": false,
      "rstrip": false,
      "normalized": true,
      "special": false
    },
    {
      "id": 50257,
      "content": "                     ",
      "single_word": false,
      "lstrip": false,
      "rstrip": false,
      "normalized": true,
      "special": false
    },
    {
      "id": 50258,
      "content": "                    ",
      "single_word": false,
      "lstrip": false,
      "rstrip": false,
      "normalized": true,
      "special": false
    },
    {
      "id": 50259,
      "content": "                   ",
      "single_word": false,
      "lstrip": false,
      "rstrip": false,
      "normalized": true,
      "special": false
    },
    {
      "id": 50260,
      "content": "                  ",
      "single_word": false,
      "lstrip": false,
      "rstrip": false,
      "normalized": true,
      "special": false
    },
    {
      "id": 50261,
      "content": "                 ",
      "single_word": false,
      "lstrip": false,
      "rstrip": false,
      "normalized": true,
      "special": false
    },
    {
      "id": 50262,
      "content": "                ",
      "single_word": false,
      "lstrip": false,
      "rstrip": false,
      "normalized": true,
      "special": false
    },
    {
      "id": 50263,
      "content": "               ",
      "single_word": false,
      "lstrip": false,
      "rstrip": false,
      "normalized": true,
      "special": false
    },
    {
      "id": 50264,
      "content": "              ",
      "single_word": false,
      "lstrip": false,
      "rstrip": false,
      "normalized": true,
      "special": false
    },
    {
      "id": 50265,
      "content": "             ",
      "single_word": false,
      "lstrip": false,
      "rstrip": false,
      "normalized": true,
      "special": false
    },
    {
      "id": 50266,
      "content": "            ",
      "single_word": false,
      "lstrip": false,
      "rstrip": false,
      "normalized": true,
      "special": false
    },
    {
      "id": 50267,
      "content": "           ",
      "single_word": false,
      "lstrip": false,
      "rstrip": false,
      "normalized": true,
      "special": false
    },
    {
      "id": 50268,
      "content": "          ",
      "single_word": false,
      "lstrip": false,
      "rstrip": false,
      "normalized": true,
      "special": false
    },
    {
      "id": 50269,
      "content": "         ",
      "single_word": false,
      "lstrip": false,
      "rstrip": false,
      "normalized": true,
      "special": false
    },
    {
      "id": 50270,
      "content": "        ",
      "single_word": false,
      "lstrip": false,
      "rstrip": false,
      "normalized": true,
      "special": false
    },
    {
      "id": 50271,
      "content": "       ",
      "single_word": false,
      "lstrip": false,
      "rstrip": false,
      "normalized": true,
      "special": false
    },
    {
      "id": 50272,
      "content": "      ",
      "single_word": false,
      "lstrip": false,
      "rstrip": false,
      "normalized": true,
      "special": false
    },
    {
      "id": 50273,
      "content": "     ",
      "single_word": false,
      "lstrip": false,
      "rstrip": false,
      "normalized": true,
      "special": false
    },
    {
      "id": 50274,
      "content": "    ",
      "single_word": false,
      "lstrip": false,
      "rstrip": false,
      "normalized": true,
      "special": false
    },
    {
      "id": 50275,
      "content": "   ",
      "single_word": false,
      "lstrip": false,
      "rstrip": false,
      "normalized": true,
      "special": false
    },
    {
      "id": 50276,
      "content": "  ",
      "single_word": false,
      "lstrip": false,
      "rstrip": false,
      "normalized": true,
      "special": false
    }
  ],
  "normalizer": {
    "type": "NFC"
  },
  "pre_tokenizer": {
    "type": "ByteLevel",
    "add_prefix_space": false,
    "trim_offsets": true,
    "use_regex": true
  },
  "post_processor": {
    "type": "ByteLevel",
    "add_prefix_space": false,
    "trim_offsets": true,
    "use_regex": true
  },
  "decoder": {
    "type": "ByteLevel",
    "add_prefix_space": false,
    "trim_offsets": true,
    "use_regex": true
  },
  "model": {
    "type": "BPE",
    "dropout": null,
    "unk_token": null,
    "continuing_subword_prefix": null,
    "end_of_word_suffix": null,
    "fuse_unk": false,
    "vocab": {
      "<|endoftext|>": 0,
      "<|padding|>": 1,
      "!": 2,
      "\"": 3,
      "#": 4,
      "$": 5,
      "%": 6,
      "&": 7,
      "'": 8,
      "(": 9,
      ")": 10,
      "*": 11,
      "+": 12,
      ",": 13,
      "-": 14,
      ".": 15,
      "/": 16,
      "0": 17,
      "1": 18,
      "2": 19,
      "3": 20,
      "4": 21,
      "5": 22,
      "6": 23,
      "7": 24,
      "8": 25,
      "9": 26,
      ":": 27,
      ";": 28,
      "<": 29,
      "=": 30,
      ">": 31,
      "?": 32,
      "@": 33,
      "A": 34,
      "B": 35,
      "C": 36,
      "D": 37,
      "E": 38,
      "F": 39,
      "G": 40,
      "H": 41,
      "I": 42,
      "J": 43,
      "K": 44,
      "L": 45,
      "M": 46,
      "N": 47,
      "O": 48,
      "P": 49,
      "Q": 50,
      "R": 51,
      "S": 52,
      "T": 53,
      "U": 54,
      "V": 55,
      "W": 56,
      "X": 57,
      "Y": 58,
      "Z": 59,
      "[": 60,
      "\\": 61,
      "]": 62,
      "^": 63,
      "_": 64,
      "`": 65,
      "a": 66,
      "b": 67,
      "c": 68,
      "d": 69,
      "e": 70,
      "f": 71,
      "g": 72,
      "h": 73,
      "i": 74,
      "j": 75,
      "k": 76,
      "l": 77,
      "m": 78,
      "n": 79,
      "o": 80,
      "p": 81,
      "q": 82,
      "r": 83,
      "s": 84,
      "t": 85,
      "u": 86,
      "v": 87,
      "w": 88,
      "x": 89,
      "y": 90,
      "z": 91,
      "{": 92,
      "|": 93,
      "}": 94,
      "~": 95,
      "¡": 96,
      "¢": 97,
      "£": 98,
      "¤": 99,
      "¥": 100,
      "¦": 101,
      "§": 102,
      "¨": 103,
      "©": 104,
      "ª": 105,
      "«": 106,
      "¬": 107,
      "®": 108,
      "¯": 109,
      "°": 110,
      "±": 111,
      "²": 112,
      "³": 113,
      "´": 114,
      "µ": 115,
      "¶": 116,
      "·": 117,
      "¸": 118,
      "¹": 119,
      "º": 120,
      "»": 121,
      "¼": 122,
      "½": 123,
      "¾": 124,
      "¿": 125,
      "Â": 126,
      "Ã": 127,
      "Ä": 128,
      "Å": 129,
      "Æ": 130,
      "Ç": 131,
      "È": 132,
      "É": 133,
      "Ê": 134,
      "Ë": 135,
      "Ì": 136,
      "Í": 137,
      "Î": 138,
      "Ï": 139,
      "Ð": 140,
      "Ñ": 141,
      "Ò": 142,
      "Ó": 143,
      "Ô": 144,
      "Õ": 145,
      "Ö": 146,
      "×": 147,
      "Ø": 148,
      "Ù": 149,
      "Ú": 150,
      "Û": 151,
      "Ü": 152,
      "Ý": 153,
      "Þ": 154,
      "ß": 155,
      "à": 156,
      "á": 157,
      "â": 158,
      "ã": 159,
      "ä": 160,
      "å": 161,
      "æ": 162,
      "ç": 163,
      "è": 164,
      "é": 165,
      "ê": 166,
      "ë": 167,
      "ì": 168,
      "í": 169,
      "î": 170,
      "ï": 171,
      "ð": 172,
      "ñ": 173,
      "ò": 174,
      "ó": 175,
      "ô": 176,
      "Ā": 177,
      "ā": 178,
      "Ă": 179,
      "ă": 180,
      "Ą": 181,
      "ą": 182,
      "Ć": 183,
      "ć": 184,
      "Ĉ": 185,
      "ĉ": 186,
      "Ċ": 187,
      "ċ": 188,
      "Č": 189,
      "č": 190,
      "Ď": 191,
      "ď": 192,
      "Đ": 193,
      "đ": 194,
      "Ē": 195,
      "ē": 196,
      "Ĕ": 197,
      "ĕ": 198,
      "Ė": 199,
      "ė": 200,
      "Ę": 201,
      "ę": 202,
      "Ě": 203,
      "ě": 204,
      "Ĝ": 205,
      "ĝ": 206,
      "Ğ": 207,
      "ğ": 208,
      "Ġ": 209,
      "ġ": 210,
      "Ģ": 211,
      "ģ": 212,
      "Ĥ": 213,
      "ĥ": 214,
      "Ħ": 215,
      "ħ": 216,
      "Ĩ": 217,
      "ĩ": 218,
      "Ī": 219,
      "ī": 220,
      "Ĭ": 221,
      "ĭ": 222,
      "Į": 223,
      "į": 224,
      "İ": 225,
      "ı": 226,
      "Ĳ": 227,
      "ĳ": 228,
      "Ĵ": 229,
      "ĵ": 230,
      "Ķ": 231,
      "ķ": 232,
      "ĸ": 233,
      "Ĺ": 234,
      "ĺ": 235,
      "Ļ": 236,
      "ļ": 237,
      "Ľ": 238,
      "ľ": 239,
      "Ŀ": 240,
      "ŀ": 241,
      "Ł": 242,
      "ł": 243,
      "Ń": 244,
      "ĠĠ": 245,
      "Ġt": 246,
      "Ġa": 247,
      "he": 248,
      "in": 249,
      "re": 250,
      "on": 251,
      "ĠĠĠĠ": 252,
      "Ġthe": 253,
      "er": 254,
      "at": 255,
      "Ġs": 256,
      "en": 257,
      "Ġo": 258,
      "Ġw": 259,
      "Ġc": 260,
      "is": 261,
      "it": 262,
      "or": 263,
      "ed": 264,
      "es": 265,
      "an": 266,
      "al": 267,
      "Ġp": 268,
      "Ġf": 269,
      "Ġb": 270,
      "Ġan": 271,
      "ing": 272,
      "Ġof": 273,
      "ar": 274,
      "Ġin": 275,
      "ou": 276,
      "Ġd": 277,
      "Ġm": 278,
      "ion": 279,
      "ic": 280,
      "Ġto": 281,
      "le": 282,
      "--": 283,
      "as": 284,
      "Ġand": 285,
      "ĠĠĠĠĠĠĠĠ": 286,
      "ro": 287,
      "Ġh": 288,
      "Ġth": 289,
      "ent": 290,
      "ct": 291,
      "et": 292,
      "el": 293,
      "Ġre": 294,
      "Ġn": 295,
      "st": 296,
      "om": 297,
      "Ġl": 298,
      "Ġe": 299,
      "il": 300,
      "id": 301,
      "ot": 302,
      "im": 303,
      "ig": 304,
      "Ġg": 305,
      "ve": 306,
      "ut": 307,
      "ĠT": 308,
      "ĠI": 309,
      "Ġis": 310,
      "ol": 311,
      "am": 312,
      "Ġ(": 313,
      "ly": 314,
      "----": 315,
      "us": 316,
      "ac": 317,
      "ation": 318,
      "ow": 319,
      "Ġbe": 320,
      "ur": 321,
      "ĠS": 322,
      "Ġfor": 323,
      "ad": 324,
      "âĢ": 325,
      "Ġthat": 326,
      "Ġon": 327,
      "un": 328,
      "ĠA": 329,
      "ĠC": 330,
      "Ġst": 331,
      "ver": 332,
      "ay": 333,
      "ith": 334,
      "ul": 335,
      "ce": 336,
      "Ġ1": 337,
      "if": 338,
      "se": 339,
      "Ġy": 340,
      "ĠĠĠ": 341,
      "Ġwith": 342,
      "ir": 343,
      "Ġhe": 344,
      "Ġcon": 345,
      "Ġ\"": 346,
      "Ġas": 347,
      "ch": 348,
      "ĠĠĠĠĠĠĠĠĠĠĠĠĠĠĠĠ": 349,
      "ter": 350,
      "od": 351,
      "Ġit": 352,
      "ĠM": 353,
      "Ġpro": 354,
      "Ġal": 355,
      "ag": 356,
      "ab": 357,
      "em": 358,
      "Ġwe": 359,
      "um": 360,
      "00": 361,
      "Ġv": 362,
      "ri": 363,
      "Ġwh": 364,
      "pe": 365,
      "ate": 366,
      "ĠP": 367,
      "Ġyou": 368,
      "Ġwas": 369,
      "Ġ$": 370,
      "qu": 371,
      "Ġde": 372,
      "res": 373,
      "Ġ2": 374,
      "os": 375,
      "ra": 376,
      "pp": 377,
      "ĠB": 378,
      "her": 379,
      "ĠThe": 380,
      "==": 381,
      "ist": 382,
      "est": 383,
      "ht": 384,
      "Ġex": 385,
      "ant": 386,
      "Ġat": 387,
      "ĠH": 388,
      "Ġcom": 389,
      "Ġor": 390,
      "Ġr": 391,
      "ld": 392,
      "Ġ\\": 393,
      "th": 394,
      "and": 395,
      "Ġse": 396,
      "--------": 397,
      "ers": 398,
      "ĠD": 399,
      "iv": 400,
      "ĠF": 401,
      "Ġsu": 402,
      "Ġare": 403,
      "ain": 404,
      "ess": 405,
      "oc": 406,
      "Ġby": 407,
      "ill": 408,
      "rom": 409,
      "ore": 410,
      "ĠW": 411,
      "op": 412,
      "ke": 413,
      "ity": 414,
      "oun": 415,
      "ĠR": 416,
      "Ġnot": 417,
      "ĠL": 418,
      "Ġha": 419,
      "ment": 420,
      "ction": 421,
      "ive": 422,
      "end": 423,
      "**": 424,
      "Ġne": 425,
      "Ġ=": 426,
      "ĠN": 427,
      "Ġ-": 428,
      "ight": 429,
      "ort": 430,
      "pt": 431,
      "Ġfrom": 432,
      "red": 433,
      "'s": 434,
      "art": 435,
      "Ġthis": 436,
      "ell": 437,
      "ud": 438,
      "Ġsh": 439,
      "Ġun": 440,
      "Ġus": 441,
      "te": 442,
      "ĠG": 443,
      "ĠE": 444,
      "ren": 445,
      "pl": 446,
      "ies": 447,
      "Ġch": 448,
      ".\"": 449,
      "ould": 450,
      "ial": 451,
      "Ġhave": 452,
      "fe": 453,
      "our": 454,
      "all": 455,
      "ated": 456,
      "âĢĻ": 457,
      "Ġle": 458,
      "ure": 459,
      "ine": 460,
      "ust": 461,
      "og": 462,
      "ge": 463,
      "{\\": 464,
      "Ġk": 465,
      "ie": 466,
      "ĠĠĠĠĠĠĠ": 467,
      "per": 468,
      "ich": 469,
      "Ġ0": 470,
      "ack": 471,
      "ard": 472,
      "ĠO": 473,
      "ical": 474,
      "Ġ*": 475,
      "Ġcan": 476,
      "ĊĠĠĠ": 477,
      "iz": 478,
      "Ġme": 479,
      "Ġj": 480,
      ").": 481,
      "ame": 482,
      "out": 483,
      "up": 484,
      "ome": 485,
      "age": 486,
      "ib": 487,
      "Ġwhe": 488,
      "ue": 489,
      "Ġab": 490,
      "der": 491,
      "Ġtr": 492,
      "ost": 493,
      "able": 494,
      "Ġ3": 495,
      "ĠIn": 496,
      "Ġwere": 497,
      "cl": 498,
      "Ġpl": 499,
      "ĠJ": 500,
      "Ġres": 501,
      "Ġcl": 502,
      "ult": 503,
      "ide": 504,
      "ast": 505,
      "ath": 506,
      "ans": 507,
      "ther": 508,
      "Ġcomp": 509,
      "The": 510,
      "ase": 511,
      "Ġall": 512,
      "Ġdo": 513,
      "act": 514,
      "ass": 515,
      "Ġim": 516,
      "ound": 517,
      "ak": 518,
      "Ġad": 519,
      "01": 520,
      "Ġhis": 521,
      "ap": 522,
      "Ġcont": 523,
      "====": 524,
      "ign": 525,
      "orm": 526,
      "ind": 527,
      "ous": 528,
      "oug": 529,
      "ĠU": 530,
      "one": 531,
      "ip": 532,
      "Ġbut": 533,
      "Ġwhich": 534,
      "ĊĊ": 535,
      "ok": 536,
      "..": 537,
      "ub": 538,
      "ition": 539,
      "Ġint": 540,
      "ĠâĢ": 541,
      "ĠĠĠĠĠĠĠĠĠĠĠĠĠĠĠĠĠĠĠĠĠĠĠĠĠĠĠĠĠĠĠĠ": 542,
      "ong": 543,
      "Ġ[": 544,
      "ph": 545,
      "Ġen": 546,
      "ice": 547,
      "Ġwor": 548,
      "Ġar": 549,
      "cc": 550,
      "Ġ{": 551,
      "ary": 552,
      "ime": 553,
      "ep": 554,
      "ty": 555,
      "Ġhas": 556,
      "Ġdis": 557,
      ");": 558,
      "Ġ+": 559,
      "ress": 560,
      "ens": 561,
      "Ġout": 562,
      "du": 563,
      "Ġgo": 564,
      "int": 565,
      "ence": 566,
      "ff": 567,
      "=\"": 568,
      "ations": 569,
      "ne": 570,
      "ia": 571,
      "Ġqu": 572,
      "----------------": 573,
      "Ġhad": 574,
      "Âł": 575,
      "ĊĠĠĠĠĠĠĠĠ": 576,
      "Ġ4": 577,
      "_{": 578,
      "ru": 579,
      "av": 580,
      "Ġone": 581,
      "),": 582,
      "ose": 583,
      "ace": 584,
      "con": 585,
      "ĊĠ": 586,
      "ile": 587,
      "Ġwill": 588,
      "ber": 589,
      "ory": 590,
      "Ġper": 591,
      "ents": 592,
      "ance": 593,
      "Ġso": 594,
      "ally": 595,
      "ĠTh": 596,
      "Ġthey": 597,
      "Ġup": 598,
      "}}": 599,
      "ely": 600,
      "so": 601,
      "ough": 602,
      "ire": 603,
      "Ġif": 604,
      "//": 605,
      "ang": 606,
      "ach": 607,
      "Ġ5": 608,
      "are": 609,
      "ry": 610,
      "ĠK": 611,
      "Ġev": 612,
      "ear": 613,
      "ite": 614,
      "de": 615,
      "Ġtheir": 616,
      "Ġher": 617,
      "Ġsa": 618,
      "Ġmy": 619,
      "ll": 620,
      "ions": 621,
      "Ġapp": 622,
      "ĉĉ": 623,
      "rent": 624,
      "Ġmore": 625,
      "'t": 626,
      "Ġthere": 627,
      "own": 628,
      "Ġpart": 629,
      "form": 630,
      "port": 631,
      "Ġli": 632,
      "xt": 633,
      "Ġyour": 634,
      "very": 635,
      "ord": 636,
      "Ġman": 637,
      "Ġpre": 638,
      "Ġag": 639,
      "ake": 640,
      "ors": 641,
      "Ġno": 642,
      "Ġother": 643,
      "Ġbeen": 644,
      "ook": 645,
      "ect": 646,
      "ail": 647,
      "ĊĠĠĠĠĠĠĠ": 648,
      "ft": 649,
      "Ġgr": 650,
      "Ġwould": 651,
      "vel": 652,
      "Ġsp": 653,
      "Ġ<": 654,
      "Ġ19": 655,
      "ys": 656,
      "ĠV": 657,
      "ree": 658,
      "ĠSt": 659,
      "Ġsc": 660,
      "ks": 661,
      "urn": 662,
      "lic": 663,
      "we": 664,
      "Ġwho": 665,
      "aus": 666,
      "Ġany": 667,
      "âĢĿ": 668,
      "Ġ$\\": 669,
      "Ġabout": 670,
      "Ġalso": 671,
      "Ġwhen": 672,
      "Ġtime": 673,
      "ĠĠĠĠĠ": 674,
      "reat": 675,
      "low": 676,
      "erv": 677,
      "eth": 678,
      "math": 679,
      "wo": 680,
      "com": 681,
      "ata": 682,
      "[@": 683,
      "ates": 684,
      "Ġthan": 685,
      "Ġ'": 686,
      "Ġro": 687,
      "In": 688,
      "Ġover": 689,
      "Ġsome": 690,
      "Ġob": 691,
      "ific": 692,
      "erm": 693,
      "Ġkn": 694,
      "ric": 695,
      "\\]": 696,
      "Ġits": 697,
      "ays": 698,
      "fter": 699,
      "hat": 700,
      "Ġbet": 701,
      "ount": 702,
      "Ġshe": 703,
      "Ġfe": 704,
      "Ġspe": 705,
      "ob": 706,
      "ces": 707,
      "Ġ&": 708,
      "ref": 709,
      "ove": 710,
      "Ġdes": 711,
      "irst": 712,
      "ple": 713,
      "ĠY": 714,
      "Ġinto": 715,
      "Ġte": 716,
      "Ġam": 717,
      "Ġass": 718,
      "cre": 719,
      "ject": 720,
      "Ġ6": 721,
      "Ġdif": 722,
      "ings": 723,
      "}$": 724,
      "rib": 725,
      "Ġsy": 726,
      "ater": 727,
      "ied": 728,
      "ov": 729,
      "Ġgen": 730,
      "Ġthem": 731,
      "lect": 732,
      "ĠIt": 733,
      "Ġinter": 734,
      "vers": 735,
      "row": 736,
      "gr": 737,
      "fect": 738,
      "iss": 739,
      "10": 740,
      "clud": 741,
      "hed": 742,
      "ĠAn": 743,
      "old": 744,
      "Ġoff": 745,
      "19": 746,
      "Ġnew": 747,
      "Ġ}": 748,
      "Ġsub": 749,
      "ink": 750,
      "Ġlike": 751,
      "Ġwhat": 752,
      "Ġsaid": 753,
      "ĠHe": 754,
      "Ġget": 755,
      "Ġacc": 756,
      "ian": 757,
      "ced": 758,
      "Ġpe": 759,
      "Ġonly": 760,
      "Ġrec": 761,
      "Ġunder": 762,
      "ish": 763,
      "Ġcomm": 764,
      "ãģ": 765,
      "ause": 766,
      "Ġtwo": 767,
      "^{": 768,
      "Ġact": 769,
      "itt": 770,
      "Ġmod": 771,
      "Ġcons": 772,
      "ĠâĢľ": 773,
      "Ġrel": 774,
      "ĠCh": 775,
      "Ġour": 776,
      "ck": 777,
      "Ġmay": 778,
      "Ġhim": 779,
      "ual": 780,
      "ick": 781,
      "ark": 782,
      "the": 783,
      "ious": 784,
      "ma": 785,
      "ild": 786,
      "Ġbl": 787,
      "get": 788,
      "Ġwork": 789,
      "ons": 790,
      "Ġbec": 791,
      "ular": 792,
      "ps": 793,
      "Ġfun": 794,
      "Ġ_": 795,
      "ade": 796,
      "ert": 797,
      "igh": 798,
      "Ġstud": 799,
      "ative": 800,
      "Ġind": 801,
      "Ġem": 802,
      "Ġpos": 803,
      "ring": 804,
      "12": 805,
      "Ġfirst": 806,
      "Ġyear": 807,
      "pect": 808,
      "Ġdef": 809,
      "Ġreg": 810,
      "Ġtrans": 811,
      "Ġcould": 812,
      "elf": 813,
      "ug": 814,
      "Ġph": 815,
      "Ġjust": 816,
      "##": 817,
      "Ġ7": 818,
      "Ġpr": 819,
      "Ġco": 820,
      "Ġval": 821,
      "========": 822,
      "Ġadd": 823,
      "Ġsuch": 824,
      "ock": 825,
      "Ġla": 826,
      "iew": 827,
      "Ġinv": 828,
      "cess": 829,
      "Ġform": 830,
      "ĠThis": 831,
      "ef": 832,
      "ased": 833,
      "ont": 834,
      "Ġwhere": 835,
      "ood": 836,
      "oth": 837,
      "Ġpres": 838,
      "ating": 839,
      "Ġthen": 840,
      "Ġthese": 841,
      "oint": 842,
      "Ġdet": 843,
      "ĠWe": 844,
      "Ġdiffe": 845,
      "Ġafter": 846,
      "Ġcol": 847,
      "Ġ201": 848,
      "Ġhow": 849,
      "ient": 850,
      "Ġret": 851,
      "stem": 852,
      "ode": 853,
      "Ġ8": 854,
      "ween": 855,
      "pro": 856,
      "ond": 857,
      "Ġdid": 858,
      "ss": 859,
      "Ã©": 860,
      "Ġsign": 861,
      "olog": 862,
      "Ġatt": 863,
      "hen": 864,
      "?\"": 865,
      "Ġexp": 866,
      "Ġrem": 867,
      "les": 868,
      "Ġpat": 869,
      "</": 870,
      "Ġknow": 871,
      "Ġprov": 872,
      "Ġset": 873,
      "ility": 874,
      "Ġbetween": 875,
      "__": 876,
      "Ġpol": 877,
      "Ġneed": 878,
      "ople": 879,
      "](": 880,
      "type": 881,
      "ict": 882,
      "11": 883,
      "Ġ10": 884,
      "ise": 885,
      "ec": 886,
      "ffect": 887,
      "ident": 888,
      "}\\": 889,
      "ution": 890,
      "Ġi": 891,
      "Ġfl": 892,
      "ta": 893,
      "Ġcell": 894,
      "ix": 895,
      "Ġback": 896,
      "Ġuse": 897,
      "Ġ9": 898,
      "oy": 899,
      "io": 900,
      "ollow": 901,
      "rit": 902,
      "rough": 903,
      ".,": 904,
      "Ġ\\[": 905,
      "Ġresult": 906,
      "ize": 907,
      "Ġused": 908,
      "eg": 909,
      "){": 910,
      "ex": 911,
      "ange": 912,
      "Ġac": 913,
      "ĠUn": 914,
      "Ġsupp": 915,
      "cept": 916,
      "ible": 917,
      "right": 918,
      "Ġsur": 919,
      "ning": 920,
      "Ġshow": 921,
      "fore": 922,
      "Ġsee": 923,
      "Ġsm": 924,
      "fr": 925,
      "fig": 926,
      "Ġinclud": 927,
      "iel": 928,
      "ĠÐ": 929,
      "Ġnum": 930,
      "tern": 931,
      "als": 932,
      "000": 933,
      "ble": 934,
      "ĊĠĠĠĠĠĠĠĠĠĠĠ": 935,
      "to": 936,
      ",\"": 937,
      "20": 938,
      "wn": 939,
      "Ġdist": 940,
      "Ġdata": 941,
      "ments": 942,
      "Ġshould": 943,
      "Ġcor": 944,
      "Ġvar": 945,
      "Ġspec": 946,
      "ER": 947,
      "Ġsim": 948,
      "Ġthrough": 949,
      "ourt": 950,
      "cy": 951,
      "Ġpeople": 952,
      "its": 953,
      "Ġmost": 954,
      "ues": 955,
      "Ġfollow": 956,
      "ruct": 957,
      "Ġfact": 958,
      "ited": 959,
      "ctions": 960,
      "mer": 961,
      "ull": 962,
      "Ġty": 963,
      "Ġ.": 964,
      "li": 965,
      "Ġclass": 966,
      "ined": 967,
      "ins": 968,
      "Ġagain": 969,
      "Ġusing": 970,
      "Ġwant": 971,
      "ever": 972,
      "Ġwell": 973,
      "ract": 974,
      "ublic": 975,
      "uch": 976,
      "other": 977,
      "Ġinst": 978,
      "ĠĠĠĠĠĠ": 979,
      "ures": 980,
      "uring": 981,
      "ics": 982,
      "ms": 983,
      "Ġbecause": 984,
      "Ġsystem": 985,
      "\"}": 986,
      "Ġright": 987,
      "Ċĉĉ": 988,
      "inal": 989,
      "Ġend": 990,
      "ax": 991,
      "ateg": 992,
      "pos": 993,
      "Ġent": 994,
      "\",": 995,
      "Ċĉ": 996,
      "Ġrequ": 997,
      "St": 998,
      "ew": 999,
      "err": 1000,
      "ield": 1001,
      "Ġprodu": 1002,
      "ement": 1003,
      "ox": 1004,
      "ities": 1005,
      "Ġgener": 1006,
      "Ġlook": 1007,
      "Ġ[@": 1008,
      ")$": 1009,
      "15": 1010,
      "oup": 1011,
      "13": 1012,
      "--------------------------------": 1013,
      "Ġeven": 1014,
      "ĊĠĠĠĠĠĠĠĠĠĠĠĠĠĠĠ": 1015,
      "Ġeach": 1016,
      "ower": 1017,
      "Ġchar": 1018,
      "]{": 1019,
      "ful": 1020,
      "Ġext": 1021,
      "imes": 1022,
      "ĠSe": 1023,
      "Ġnow": 1024,
      "ized": 1025,
      "sc": 1026,
      "Ġdifferent": 1027,
      "uc": 1028,
      "Ġhigh": 1029,
      "Ġconst": 1030,
      "ily": 1031,
      "ars": 1032,
      "sp": 1033,
      "ward": 1034,
      "(\\": 1035,
      "16": 1036,
      "ically": 1037,
      "cond": 1038,
      "Ġway": 1039,
      "Ġ|": 1040,
      "hes": 1041,
      "IN": 1042,
      "ĊĠĠĠĠĠ": 1043,
      "Th": 1044,
      "Ġel": 1045,
      "Ġevery": 1046,
      "14": 1047,
      "Ġlong": 1048,
      "Ġap": 1049,
      "ational": 1050,
      "...": 1051,
      "Ġ200": 1052,
      "Ġdon": 1053,
      "Ġmin": 1054,
      "Ġeffect": 1055,
      "Ġmake": 1056,
      "Ġdoes": 1057,
      "Ġke": 1058,
      "let": 1059,
      "Ġhere": 1060,
      "Ġpar": 1061,
      "ool": 1062,
      "ger": 1063,
      "ork": 1064,
      "put": 1065,
      "Ġdown": 1066,
      "Ġcall": 1067,
      "Ð¾": 1068,
      "riv": 1069,
      "led": 1070,
      "Ġtest": 1071,
      "Ġsame": 1072,
      "Ġdi": 1073,
      "ife": 1074,
      "ention": 1075,
      "ting": 1076,
      "Ġvery": 1077,
      "Ġbefore": 1078,
      "ale": 1079,
      "ator": 1080,
      "Ġbu": 1081,
      "()": 1082,
      "Ġcase": 1083,
      "](#": 1084,
      "ĠĠĠĠĠĠĠĠĠĠĠĠĠĠĠĠĠĠĠĠĠĠĠĠĠĠĠĠĠĠĠĠĠĠĠĠĠĠĠĠĠĠĠĠĠĠĠĠĠĠĠĠĠĠĠĠĠĠĠĠĠĠĠĠ": 1085,
      "Ġdec": 1086,
      "pr": 1087,
      "read": 1088,
      "Ġfind": 1089,
      "ince": 1090,
      "Ġreturn": 1091,
      "],": 1092,
      "18": 1093,
      "air": 1094,
      "Ġcur": 1095,
      "ared": 1096,
      "Ġboth": 1097,
      "Ġstat": 1098,
      "25": 1099,
      "ines": 1100,
      "Ġinte": 1101,
      "rol": 1102,
      "ants": 1103,
      "ients": 1104,
      "ym": 1105,
      "way": 1106,
      "Ġyears": 1107,
      "ĠâĢĵ": 1108,
      "rm": 1109,
      "Ġthose": 1110,
      "Ġmat": 1111,
      "Ġbel": 1112,
      "Ġcar": 1113,
      "Ġmon": 1114,
      "Ġanal": 1115,
      "arch": 1116,
      "Ġpartic": 1117,
      "oci": 1118,
      "Ġfound": 1119,
      "rest": 1120,
      "Ġop": 1121,
      "ript": 1122,
      "ave": 1123,
      "frac": 1124,
      "Ġaut": 1125,
      "_{\\": 1126,
      "Ġpoint": 1127,
      "âĢĶ": 1128,
      "Ġmed": 1129,
      "ethod": 1130,
      "ages": 1131,
      "Ġplay": 1132,
      "Ġhand": 1133,
      "****": 1134,
      "upp": 1135,
      "ann": 1136,
      "ute": 1137,
      "\">": 1138,
      "ON": 1139,
      "Ġtra": 1140,
      "Ġincre": 1141,
      "Ġmany": 1142,
      "aint": 1143,
      "Ġest": 1144,
      "An": 1145,
      "Ġbeing": 1146,
      "It": 1147,
      "par": 1148,
      "Ġgu": 1149,
      "Ġloc": 1150,
      "Ġser": 1151,
      "Ð°": 1152,
      "Ġpers": 1153,
      "cent": 1154,
      "velop": 1155,
      "text": 1156,
      "Ġ,": 1157,
      "Ġthink": 1158,
      "Ġfunction": 1159,
      "Ġmade": 1160,
      "Ġche": 1161,
      "Ġet": 1162,
      "Ġ:": 1163,
      "ank": 1164,
      "ĠQ": 1165,
      "17": 1166,
      "Ġmem": 1167,
      "->": 1168,
      "ases": 1169,
      "aking": 1170,
      "of": 1171,
      "Ġexper": 1172,
      "ev": 1173,
      "Ġexam": 1174,
      "Ġgood": 1175,
      "ĠCom": 1176,
      "ature": 1177,
      "set": 1178,
      "cal": 1179,
      "Ġnumber": 1180,
      "]{}": 1181,
      "Ġz": 1182,
      "Ġresp": 1183,
      "]\\]": 1184,
      "Ġdire": 1185,
      "âĢī": 1186,
      "ason": 1187,
      "ĊĠĠĠĠĠĠĠĠĠĠĠĠĠĠĠĠ": 1188,
      "over": 1189,
      "yl": 1190,
      "ĠÂ": 1191,
      "Ġappro": 1192,
      "Ġfil": 1193,
      "AT": 1194,
      "Ġtri": 1195,
      "rence": 1196,
      "ody": 1197,
      "ĠFor": 1198,
      "Ġmuch": 1199,
      "sh": 1200,
      "day": 1201,
      "$\\": 1202,
      "Ġhel": 1203,
      "ism": 1204,
      "eng": 1205,
      "tr": 1206,
      "Ðµ": 1207,
      "val": 1208,
      "cer": 1209,
      "Ġins": 1210,
      "Ġown": 1211,
      "app": 1212,
      "Ġstr": 1213,
      "Ġ@": 1214,
      "ense": 1215,
      "ner": 1216,
      "}{": 1217,
      "Ġra": 1218,
      "ĠAl": 1219,
      "Ġsol": 1220,
      "ret": 1221,
      "min": 1222,
      "Ġwhile": 1223,
      "ought": 1224,
      "ash": 1225,
      "ather": 1226,
      "Ġ/": 1227,
      "))": 1228,
      "30": 1229,
      "ually": 1230,
      "We": 1231,
      "Ġprocess": 1232,
      "Ġprote": 1233,
      "Ġrep": 1234,
      "50": 1235,
      "Ġlar": 1236,
      "32": 1237,
      "oid": 1238,
      "Ġread": 1239,
      "ah": 1240,
      "els": 1241,
      "ively": 1242,
      "ained": 1243,
      "ĠAnd": 1244,
      "ified": 1245,
      "Ġpresent": 1246,
      "gan": 1247,
      "formation": 1248,
      "Ġ12": 1249,
      "ired": 1250,
      "ng": 1251,
      "201": 1252,
      "âĢĵ": 1253,
      "Ġ\\[[@": 1254,
      "ness": 1255,
      "ression": 1256,
      "be": 1257,
      "fl": 1258,
      "Ġgiv": 1259,
      "Ġsom": 1260,
      "ven": 1261,
      "Ġdisc": 1262,
      "Ġstudy": 1263,
      "Ġthree": 1264,
      "Ġstart": 1265,
      "gg": 1266,
      "ST": 1267,
      "Ġlevel": 1268,
      "Ġx": 1269,
      "Ġgreat": 1270,
      "ices": 1271,
      "ved": 1272,
      "Ġsecond": 1273,
      "left": 1274,
      "Ġref": 1275,
      "What": 1276,
      "AR": 1277,
      "alk": 1278,
      "any": 1279,
      "ategory": 1280,
      "ĠLet": 1281,
      "line": 1282,
      "Ġ18": 1283,
      "ĠAs": 1284,
      "arly": 1285,
      "self": 1286,
      "Ġdevelop": 1287,
      "br": 1288,
      "Ġgl": 1289,
      "Ġposs": 1290,
      "cul": 1291,
      "ĠBut": 1292,
      "Ġwithout": 1293,
      "ĠPro": 1294,
      "alth": 1295,
      "Ġserv": 1296,
      "ision": 1297,
      "Ġequ": 1298,
      "ton": 1299,
      "igned": 1300,
      "amp": 1301,
      "Ġcourt": 1302,
      "ument": 1303,
      "Ġreport": 1304,
      "Ġdep": 1305,
      "ole": 1306,
      "Ġterm": 1307,
      "Ġbr": 1308,
      "Ġduring": 1309,
      "ĠIf": 1310,
      "CR": 1311,
      "ouse": 1312,
      "Ġmet": 1313,
      "med": 1314,
      "Ġfr": 1315,
      "uss": 1316,
      "ams": 1317,
      "Ġvalue": 1318,
      "ality": 1319,
      "ization": 1320,
      "ier": 1321,
      "NA": 1322,
      "Ġav": 1323,
      "mathb": 1324,
      "ĠÃ": 1325,
      "erg": 1326,
      "Ġnon": 1327,
      "He": 1328,
      "Ġsupport": 1329,
      "ffic": 1330,
      "Ġant": 1331,
      "Ġmethod": 1332,
      "Ġsay": 1333,
      "ider": 1334,
      "Ġstill": 1335,
      "ters": 1336,
      ",\\": 1337,
      "lement": 1338,
      "Ġlet": 1339,
      "Ġorder": 1340,
      "Ġcells": 1341,
      "man": 1342,
      "til": 1343,
      "str": 1344,
      "Ġpublic": 1345,
      "ists": 1346,
      "Ġperform": 1347,
      "24": 1348,
      "Ġpa": 1349,
      "ross": 1350,
      "ane": 1351,
      "$.": 1352,
      "'m": 1353,
      "raph": 1354,
      "Ġsmall": 1355,
      "ided": 1356,
      "ãĤ": 1357,
      "://": 1358,
      "ĠHow": 1359,
      "dition": 1360,
      "Ġhelp": 1361,
      "yn": 1362,
      "Ġpatients": 1363,
      "Ġmust": 1364,
      "ially": 1365,
      "$,": 1366,
      "ÑĤ": 1367,
      "oh": 1368,
      "amb": 1369,
      "az": 1370,
      "ency": 1371,
      "OR": 1372,
      "land": 1373,
      "view": 1374,
      "Ġstate": 1375,
      "oad": 1376,
      "anc": 1377,
      "rt": 1378,
      "Ġtake": 1379,
      "Ġ//": 1380,
      "\":": 1381,
      "ving": 1382,
      "',": 1383,
      "Ġ20": 1384,
      "Ġcount": 1385,
      "Ġline": 1386,
      "Ġgroup": 1387,
      "Ġday": 1388,
      "Ð¸": 1389,
      "Ġlast": 1390,
      "Ġcle": 1391,
      "Ã¤": 1392,
      "Ġappe": 1393,
      "You": 1394,
      "Ġimport": 1395,
      "Ġactiv": 1396,
      "ds": 1397,
      "Ġdesc": 1398,
      "Ġcent": 1399,
      "EN": 1400,
      "Ġ**": 1401,
      "ray": 1402,
      "aw": 1403,
      "Ġprev": 1404,
      "me": 1405,
      "ron": 1406,
      "Ġed": 1407,
      "Ġrun": 1408,
      "Ġproble": 1409,
      "ES": 1410,
      "Ġagainst": 1411,
      "oot": 1412,
      "Category": 1413,
      "Ġexpl": 1414,
      "Ġsignific": 1415,
      "Ġname": 1416,
      "less": 1417,
      "0000": 1418,
      "ify": 1419,
      "atic": 1420,
      "Ġlead": 1421,
      "ĠYou": 1422,
      "22": 1423,
      "Ġcre": 1424,
      ".âĢĿ": 1425,
      "irc": 1426,
      "ulation": 1427,
      "ished": 1428,
      "Ġchild": 1429,
      "ability": 1430,
      "Ġfam": 1431,
      "aj": 1432,
      "IT": 1433,
      "acter": 1434,
      "idence": 1435,
      "Ġperson": 1436,
      "Ġquest": 1437,
      "80": 1438,
      "not": 1439,
      "tt": 1440,
      "ek": 1441,
      "Ġfin": 1442,
      "ames": 1443,
      "Ġoper": 1444,
      "Ġart": 1445,
      "meric": 1446,
      "\\[": 1447,
      "Ġdel": 1448,
      "40": 1449,
      "::": 1450,
      "chn": 1451,
      "que": 1452,
      "Ġcontrol": 1453,
      "ĠÎ": 1454,
      "ead": 1455,
      "hip": 1456,
      "ĠNew": 1457,
      "Ġ15": 1458,
      "Ġvari": 1459,
      "Ġpur": 1460,
      "Ġconf": 1461,
      "Ġstand": 1462,
      "Ġproper": 1463,
      "eta": 1464,
      "Ġhy": 1465,
      "Let": 1466,
      "rict": 1467,
      "aim": 1468,
      "Ġgoing": 1469,
      "Fig": 1470,
      "Ġdem": 1471,
      "'re": 1472,
      "da": 1473,
      "Ġdev": 1474,
      "Ġaround": 1475,
      "!\"": 1476,
      "ww": 1477,
      "Ġopt": 1478,
      "ik": 1479,
      "Ġdirect": 1480,
      "Ġhead": 1481,
      "ience": 1482,
      "itive": 1483,
      "Ġu": 1484,
      "Ġinc": 1485,
      "Ġerr": 1486,
      "ides": 1487,
      "Ġwr": 1488,
      "urther": 1489,
      "(-": 1490,
      "Ġinformation": 1491,
      "abel": 1492,
      "ysis": 1493,
      "pha": 1494,
      "Ġlife": 1495,
      "ĊĊĠĠĠ": 1496,
      "ology": 1497,
      "serv": 1498,
      "Ġsl": 1499,
      "ĠShe": 1500,
      "Ġpost": 1501,
      "ots": 1502,
      "ĠZ": 1503,
      "und": 1504,
      "ource": 1505,
      "atch": 1506,
      "ets": 1507,
      "23": 1508,
      "Ġpass": 1509,
      "Ġmeas": 1510,
      "Ġtype": 1511,
      "Ġtoo": 1512,
      "arm": 1513,
      "ium": 1514,
      "ination": 1515,
      "Ġelect": 1516,
      "Ġbre": 1517,
      "200": 1518,
      "ott": 1519,
      "ured": 1520,
      "Ġiss": 1521,
      "ittle": 1522,
      "ately": 1523,
      "Ġreal": 1524,
      "99": 1525,
      "ething": 1526,
      "Ġopen": 1527,
      "ior": 1528,
      "Ġanother": 1529,
      "agn": 1530,
      "Ġcr": 1531,
      "---": 1532,
      "Ġworld": 1533,
      "Ġsignificant": 1534,
      "ĠTr": 1535,
      "ĠWh": 1536,
      "Ġmight": 1537,
      "ission": 1538,
      "AN": 1539,
      "64": 1540,
      "gen": 1541,
      "for": 1542,
      "Ġresults": 1543,
      "ral": 1544,
      "def": 1545,
      "ural": 1546,
      "Ġhum": 1547,
      "Ġident": 1548,
      "60": 1549,
      "ains": 1550,
      "Ġrest": 1551,
      "This": 1552,
      "pec": 1553,
      "Ġmult": 1554,
      "Ġtreat": 1555,
      "AL": 1556,
      "Ġcare": 1557,
      "Ġcontin": 1558,
      "bl": 1559,
      "eral": 1560,
      "Ġwithin": 1561,
      "ital": 1562,
      "Ġfollowing": 1563,
      "ivers": 1564,
      "Ġtem": 1565,
      "Ġmodel": 1566,
      "ived": 1567,
      "here": 1568,
      "Ġlaw": 1569,
      "].": 1570,
      "Ġdeterm": 1571,
      ")\\": 1572,
      "ording": 1573,
      "ently": 1574,
      "orn": 1575,
      "ways": 1576,
      "Ġstruct": 1577,
      "Ġes": 1578,
      "Ġlim": 1579,
      "Ġsince": 1580,
      "Ġallow": 1581,
      "akes": 1582,
      "ĠThey": 1583,
      "ote": 1584,
      "aterial": 1585,
      "duct": 1586,
      "(\"": 1587,
      "mathcal": 1588,
      "ration": 1589,
      "name": 1590,
      "lex": 1591,
      "fer": 1592,
      "ional": 1593,
      "ĠX": 1594,
      "att": 1595,
      "arn": 1596,
      "thing": 1597,
      "ably": 1598,
      "Ġmean": 1599,
      "Ġinterest": 1600,
      "work": 1601,
      "Ġbeh": 1602,
      "}(": 1603,
      "Ġadv": 1604,
      "ĠDe": 1605,
      "Ġwom": 1606,
      "Ġimp": 1607,
      "ĠSh": 1608,
      "Ġocc": 1609,
      "33": 1610,
      "Ġtry": 1611,
      "Ġpower": 1612,
      "ĠAmeric": 1613,
      "Ġturn": 1614,
      "by": 1615,
      "Ġmark": 1616,
      "Ġcondition": 1617,
      "Ġlist": 1618,
      "28": 1619,
      "Ġnever": 1620,
      "ĠNo": 1621,
      "ither": 1622,
      "ĠOn": 1623,
      "ential": 1624,
      "Ġsing": 1625,
      "ury": 1626,
      "ackage": 1627,
      "âĢľ": 1628,
      "Ġsk": 1629,
      "27": 1630,
      "resent": 1631,
      "iness": 1632,
      "Ġsomething": 1633,
      "ves": 1634,
      "Ġaddition": 1635,
      "ĠĠĠĠĠĠĠĠĠĠĠĠĠĠĠĠĠĠĠĠĠĠĠĠ": 1636,
      "alpha": 1637,
      "Ġ14": 1638,
      "ĠCl": 1639,
      "Ð½": 1640,
      "ts": 1641,
      "Ġask": 1642,
      "Ġfew": 1643,
      "ives": 1644,
      "Ġrece": 1645,
      "Ġseem": 1646,
      "CT": 1647,
      "iff": 1648,
      "Ġvis": 1649,
      "Ġexample": 1650,
      "chool": 1651,
      "Ġlittle": 1652,
      "bers": 1653,
      "Ġhapp": 1654,
      "Ġcurrent": 1655,
      "]\\].": 1656,
      "ule": 1657,
      "rop": 1658,
      "Ġplace": 1659,
      "Ġredu": 1660,
      "rel": 1661,
      "arg": 1662,
      "Ġreally": 1663,
      "face": 1664,
      "son": 1665,
      "Ġbas": 1666,
      "ploy": 1667,
      "Ġ16": 1668,
      "Ġleft": 1669,
      "Ġve": 1670,
      "35": 1671,
      "Ex": 1672,
      "Ġfield": 1673,
      "Ñģ": 1674,
      "Ġrespect": 1675,
      "stand": 1676,
      "Ġgiven": 1677,
      "dd": 1678,
      "Ġless": 1679,
      "ĠIs": 1680,
      "Ġcommun": 1681,
      "Ġbest": 1682,
      "Ġchang": 1683,
      "Ġpop": 1684,
      "Ġbus": 1685,
      "ml": 1686,
      "cript": 1687,
      "hor": 1688,
      "ho": 1689,
      "Ġincluding": 1690,
      "Ġput": 1691,
      "ype": 1692,
      "Ġrele": 1693,
      "Ġgot": 1694,
      "ertain": 1695,
      "htt": 1696,
      "ÑĢ": 1697,
      "Ġlow": 1698,
      "ining": 1699,
      "osed": 1700,
      "ised": 1701,
      "================": 1702,
      "ED": 1703,
      "sec": 1704,
      "Ġcome": 1705,
      "34": 1706,
      "ĠThere": 1707,
      "Ġlight": 1708,
      "Ġassoci": 1709,
      "gram": 1710,
      "Ġold": 1711,
      "Ġ{#": 1712,
      "____": 1713,
      "ope": 1714,
      "eter": 1715,
      "ĠCon": 1716,
      "29": 1717,
      "Ġinvest": 1718,
      "AS": 1719,
      "ĠRe": 1720,
      "Ġpot": 1721,
      "Ġ17": 1722,
      "ĠHowever": 1723,
      "Ġcal": 1724,
      "Ġhig": 1725,
      "Ġgover": 1726,
      "ends": 1727,
      "Ġhome": 1728,
      "Ġcap": 1729,
      "oss": 1730,
      "26": 1731,
      "Ġtechn": 1732,
      "Ġmot": 1733,
      "ety": 1734,
      "Ġnext": 1735,
      "Ġarg": 1736,
      "ĠWhat": 1737,
      "Ġ*/": 1738,
      "apt": 1739,
      "Ġfour": 1740,
      "ivid": 1741,
      "Ġprob": 1742,
      "^{\\": 1743,
      "ĊĊĠ": 1744,
      "Ġtyp": 1745,
      "ength": 1746,
      "reg": 1747,
      "vert": 1748,
      "Ġ199": 1749,
      "Ġclaim": 1750,
      "ene": 1751,
      "abl": 1752,
      "Ġque": 1753,
      "Ġbased": 1754,
      "Ġtop": 1755,
      "Ġgrow": 1756,
      "Ã¡": 1757,
      "ina": 1758,
      "Ġobserv": 1759,
      "ĊĠĠĠĠ": 1760,
      "rap": 1761,
      "05": 1762,
      "inc": 1763,
      "Ġ$$\\": 1764,
      "ump": 1765,
      "Ġbo": 1766,
      "yt": 1767,
      "bs": 1768,
      "ãĥ": 1769,
      "Ġmonth": 1770,
      "ery": 1771,
      "ĊĠĠ": 1772,
      "Con": 1773,
      "Ġimportant": 1774,
      "Ġsam": 1775,
      "aining": 1776,
      "ĠPh": 1777,
      "Ġindic": 1778,
      "Ch": 1779,
      "ĠAr": 1780,
      "Ġlarge": 1781,
      "ribut": 1782,
      "Ġanalysis": 1783,
      "Ġder": 1784,
      "Re": 1785,
      "Ġhealth": 1786,
      "37": 1787,
      "lection": 1788,
      "Ġobject": 1789,
      "Ġsit": 1790,
      "Ġleg": 1791,
      "ari": 1792,
      "ference": 1793,
      "Ġbi": 1794,
      "Ġbro": 1795,
      "ee": 1796,
      "21": 1797,
      "Ġparticular": 1798,
      "Ġapplic": 1799,
      "Ġdescrib": 1800,
      "Ġprof": 1801,
      "Ġbelie": 1802,
      "Ġsugg": 1803,
      "Ġsuggest": 1804,
      "Ġbetter": 1805,
      ",âĢĿ": 1806,
      "uck": 1807,
      "ern": 1808,
      "Ġgovern": 1809,
      "ĠSc": 1810,
      "roll": 1811,
      "36": 1812,
      "icro": 1813,
      "mb": 1814,
      "mun": 1815,
      "arget": 1816,
      "ird": 1817,
      "Ġchange": 1818,
      "Ð¾Ð": 1819,
      "reen": 1820,
      "Ġmen": 1821,
      "uro": 1822,
      "Ġobt": 1823,
      "Ġwater": 1824,
      "aps": 1825,
      "new": 1826,
      "Ġide": 1827,
      "ccess": 1828,
      "ocument": 1829,
      "IS": 1830,
      "por": 1831,
      "ats": 1832,
      "'ll": 1833,
      "ended": 1834,
      "####": 1835,
      "ambda": 1836,
      "Ġdr": 1837,
      "ID": 1838,
      "38": 1839,
      "Ġabove": 1840,
      "Ġthings": 1841,
      "Ġeas": 1842,
      "LE": 1843,
      "requ": 1844,
      "Pro": 1845,
      "Ġcommon": 1846,
      "ĠPl": 1847,
      "RE": 1848,
      "'ve": 1849,
      "Ġden": 1850,
      "leg": 1851,
      "Ġ#": 1852,
      "âĪ": 1853,
      "Ġpath": 1854,
      "Ġmov": 1855,
      "hib": 1856,
      "45": 1857,
      "ilar": 1858,
      "Ġview": 1859,
      "plic": 1860,
      "amma": 1861,
      "elta": 1862,
      "Ġsw": 1863,
      "IC": 1864,
      "Ġconne": 1865,
      "ten": 1866,
      "39": 1867,
      "ples": 1868,
      "Ġthought": 1869,
      "ctor": 1870,
      "'d": 1871,
      "Ġhist": 1872,
      "Ġfile": 1873,
      "();": 1874,
      "aring": 1875,
      "ĠAll": 1876,
      "ification": 1877,
      "Ġleast": 1878,
      "ĠFr": 1879,
      "Ġwhether": 1880,
      "Ġself": 1881,
      "pped": 1882,
      "ream": 1883,
      "Ġ30": 1884,
      "Ġproduct": 1885,
      "isk": 1886,
      "oor": 1887,
      "Ġvers": 1888,
      "ĠEx": 1889,
      "$$": 1890,
      "Ġfail": 1891,
      "Ġhard": 1892,
      "ĠSo": 1893,
      "Ġcharacter": 1894,
      "Ġproblem": 1895,
      "Ġpossible": 1896,
      "Ġdays": 1897,
      "And": 1898,
      "Ġposition": 1899,
      "Ġalways": 1900,
      "Ġinvol": 1901,
      "Ġexpect": 1902,
      "Ġ11": 1903,
      "Ġdidn": 1904,
      "ĠâĢĶ": 1905,
      "mu": 1906,
      "Ġhaving": 1907,
      "Ġconsider": 1908,
      "As": 1909,
      "onse": 1910,
      "add": 1911,
      "Ġwon": 1912,
      "action": 1913,
      "ien": 1914,
      "cur": 1915,
      "ĠTo": 1916,
      "Ġsever": 1917,
      "Ġgive": 1918,
      "Ġuntil": 1919,
      "aut": 1920,
      "Ġreason": 1921,
      "HE": 1922,
      "ault": 1923,
      "Ġrecord": 1924,
      "Ġcalled": 1925,
      "Ġ{\\": 1926,
      "Ġrese": 1927,
      "Ġfeel": 1928,
      "Ġknown": 1929,
      "Ġside": 1930,
      "Ġtot": 1931,
      "ĠĠĠĠĠĠĠĠĠĠĠ": 1932,
      ")/": 1933,
      "AC": 1934,
      "ware": 1935,
      "Ġvol": 1936,
      "Ġopp": 1937,
      "opy": 1938,
      "ormal": 1939,
      "co": 1940,
      "Ġevidence": 1941,
      "ait": 1942,
      "Ġbig": 1943,
      "ij": 1944,
      "ask": 1945,
      "ending": 1946,
      "ung": 1947,
      "Ġmus": 1948,
      "rain": 1949,
      "ÃŃ": 1950,
      "aces": 1951,
      "au": 1952,
      "Ġquestion": 1953,
      "Ã³": 1954,
      "Ġdue": 1955,
      "egin": 1956,
      "Ġrepresent": 1957,
      "ividual": 1958,
      "Ġfree": 1959,
      "Ġcour": 1960,
      "Ġavail": 1961,
      "che": 1962,
      "Ġorgan": 1963,
      "Ġprom": 1964,
      "Ġimpro": 1965,
      "Ġhuman": 1966,
      "70": 1967,
      "label": 1968,
      "Ġ--": 1969,
      "iod": 1970,
      "Ġtreatment": 1971,
      "ances": 1972,
      "Ġbuild": 1973,
      "acy": 1974,
      "ological": 1975,
      "75": 1976,
      "Ġaway": 1977,
      "Ġkeep": 1978,
      "Ġsize": 1979,
      "Ġlocal": 1980,
      "ling": 1981,
      "ĠUS": 1982,
      "imal": 1983,
      "Ġbook": 1984,
      "Ġrad": 1985,
      "ĠUnited": 1986,
      "cont": 1987,
      "ison": 1988,
      "But": 1989,
      "}^{": 1990,
      "mathbb": 1991,
      "To": 1992,
      "play": 1993,
      "hy": 1994,
      "ajor": 1995,
      "Ġlater": 1996,
      "ĠGr": 1997,
      "rences": 1998,
      "etic": 1999,
      "}_": 2000,
      "outh": 2001,
      "iron": 2002,
      "part": 2003,
      "though": 2004,
      "igma": 2005,
      "ĠAd": 2006,
      "Ġfurther": 2007,
      "epend": 2008,
      "bar": 2009,
      "Ġelse": 2010,
      "Ġshown": 2011,
      "Ġinit": 2012,
      "rem": 2013,
      "Ġsingle": 2014,
      "********": 2015,
      "idd": 2016,
      "Ġdiv": 2017,
      "alse": 2018,
      "Cl": 2019,
      "Ġsum": 2020,
      "Ġfamily": 2021,
      "Ġmain": 2022,
      "},": 2023,
      "icle": 2024,
      "ET": 2025,
      "}_{": 2026,
      "hing": 2027,
      "Ġtell": 2028,
      "=\\": 2029,
      "Ġ25": 2030,
      "44": 2031,
      "Ġtrue": 2032,
      "Ġ</": 2033,
      "sel": 2034,
      "usion": 2035,
      "Ġnet": 2036,
      "ember": 2037,
      "ready": 2038,
      "Ġoffic": 2039,
      "raw": 2040,
      "pone": 2041,
      "If": 2042,
      "begin": 2043,
      "var": 2044,
      "Ġprevious": 2045,
      "Ġey": 2046,
      "ograph": 2047,
      "Ġexpression": 2048,
      "Ġcomb": 2049,
      "inf": 2050,
      "ĠApp": 2051,
      "col": 2052,
      "ĠThese": 2053,
      "Ġfri": 2054,
      "88": 2055,
      "mat": 2056,
      "Ġeither": 2057,
      "ĠAt": 2058,
      "pi": 2059,
      "Ġindividual": 2060,
      "org": 2061,
      "Ġorig": 2062,
      "Ġpred": 2063,
      "ĠThat": 2064,
      "ĠCol": 2065,
      "uff": 2066,
      "Ġseveral": 2067,
      "ext": 2068,
      "Ġtimes": 2069,
      "ĠLe": 2070,
      "ĠBl": 2071,
      "na": 2072,
      "('": 2073,
      "Ġsimilar": 2074,
      "Ġpay": 2075,
      "resp": 2076,
      "ĠStates": 2077,
      "Ġlik": 2078,
      "ressed": 2079,
      "Ġfar": 2080,
      "itor": 2081,
      "65": 2082,
      "enc": 2083,
      "unt": 2084,
      "Ġprovide": 2085,
      "Ġprogram": 2086,
      "Ġgeneral": 2087,
      "AP": 2088,
      "usep": 2089,
      "69": 2090,
      "ĠWhen": 2091,
      "iment": 2092,
      "Ġcho": 2093,
      "ift": 2094,
      "iversity": 2095,
      "Ġunderstand": 2096,
      "Ġmeans": 2097,
      "Ġplan": 2098,
      "usepackage": 2099,
      "Ġcirc": 2100,
      "ĠSp": 2101,
      "ĠInd": 2102,
      "alf": 2103,
      "Ġable": 2104,
      "Ġcost": 2105,
      "âĪĴ": 2106,
      "ued": 2107,
      "ours": 2108,
      "nd": 2109,
      "nal": 2110,
      "ĠCourt": 2111,
      "Ġalong": 2112,
      "iple": 2113,
      "aken": 2114,
      "Com": 2115,
      "ohn": 2116,
      "Ġabs": 2117,
      "Ġmove": 2118,
      "Ġsure": 2119,
      "Ġfull": 2120,
      "oups": 2121,
      "ered": 2122,
      "ume": 2123,
      "ergy": 2124,
      "04": 2125,
      "Ġemploy": 2126,
      "Ġcode": 2127,
      "Ġjud": 2128,
      "Ġweek": 2129,
      "Ġavailable": 2130,
      "ister": 2131,
      "aligned": 2132,
      "Ġbody": 2133,
      "angle": 2134,
      "back": 2135,
      "Ġbusiness": 2136,
      "Ġwar": 2137,
      "}$$": 2138,
      "Ġwhy": 2139,
      "sw": 2140,
      "Î±": 2141,
      "ocial": 2142,
      "Ġschool": 2143,
      "Ġmaterial": 2144,
      "Ġ13": 2145,
      "ler": 2146,
      "ched": 2147,
      "cle": 2148,
      "ored": 2149,
      "Ġphys": 2150,
      "Ġchildren": 2151,
      "ser": 2152,
      "oney": 2153,
      "div": 2154,
      "ãĢ": 2155,
      "orth": 2156,
      "Ġinfl": 2157,
      "ering": 2158,
      "Ġshort": 2159,
      "Ġsequ": 2160,
      "osp": 2161,
      "phi": 2162,
      "mon": 2163,
      "Ġ24": 2164,
      "Ġgame": 2165,
      "itted": 2166,
      "Ġthough": 2167,
      "Ġalready": 2168,
      "Ġhigher": 2169,
      "Ġarea": 2170,
      "Ġdiff": 2171,
      "yle": 2172,
      "Ġspecific": 2173,
      "indow": 2174,
      "Ġstudies": 2175,
      "Ġcertain": 2176,
      "Ġvi": 2177,
      "opt": 2178,
      "iving": 2179,
      "Ġperiod": 2180,
      "Ġthing": 2181,
      "ising": 2182,
      "Ġtold": 2183,
      "go": 2184,
      "OU": 2185,
      "Ġhold": 2186,
      "empt": 2187,
      "mm": 2188,
      "side": 2189,
      "Ġamong": 2190,
      "ney": 2191,
      "Ġinf": 2192,
      "Ġvalues": 2193,
      "];": 2194,
      "Ġ!": 2195,
      "ards": 2196,
      "Ġsent": 2197,
      "rist": 2198,
      "Ġproject": 2199,
      "ried": 2200,
      "Ġmajor": 2201,
      "idth": 2202,
      "data": 2203,
      "sum": 2204,
      "ley": 2205,
      "Ġsat": 2206,
      "ĠOr": 2207,
      "Ġgovernment": 2208,
      "Ġeng": 2209,
      "Ġcame": 2210,
      "oper": 2211,
      "illion": 2212,
      "ĠRes": 2213,
      "For": 2214,
      "Ġdise": 2215,
      "Ġdesign": 2216,
      "Ġenough": 2217,
      "Ġdone": 2218,
      "Ġcases": 2219,
      "Ġupon": 2220,
      "Ġsuper": 2221,
      "95": 2222,
      "Ġoften": 2223,
      "ns": 2224,
      "mit": 2225,
      "Ġexist": 2226,
      "85": 2227,
      "Ġerror": 2228,
      "ustom": 2229,
      "mission": 2230,
      "lected": 2231,
      "Ġele": 2232,
      "Ġ100": 2233,
      "Ġkey": 2234,
      "Ġpri": 2235,
      "Ġparam": 2236,
      "aster": 2237,
      "Ġkind": 2238,
      "Ġ>": 2239,
      "Ġben": 2240,
      "olution": 2241,
      "Ġlay": 2242,
      "Ġmom": 2243,
      "urs": 2244,
      "Ġport": 2245,
      "ries": 2246,
      "ament": 2247,
      "Ġprim": 2248,
      "-\\": 2249,
      "Ġaction": 2250,
      "67": 2251,
      "most": 2252,
      "_\\": 2253,
      "vent": 2254,
      "Ġwomen": 2255,
      "Ġsubject": 2256,
      "Ġlot": 2257,
      "Ġcoun": 2258,
      "ape": 2259,
      "lambda": 2260,
      "ounds": 2261,
      "):": 2262,
      "ĠCal": 2263,
      "Ġtotal": 2264,
      "eps": 2265,
      "Ġstrong": 2266,
      "II": 2267,
      "Ġcrit": 2268,
      "erc": 2269,
      "90": 2270,
      "ique": 2271,
      "ables": 2272,
      "Ġfore": 2273,
      "qrt": 2274,
      "eb": 2275,
      "fficient": 2276,
      "OM": 2277,
      "Ġreview": 2278,
      "utes": 2279,
      "Ġmass": 2280,
      "Ġrate": 2281,
      "Ġcourse": 2282,
      "Ġpract": 2283,
      "ai": 2284,
      "Ġteam": 2285,
      "ĠĠĠĠĠĠĠĠĠ": 2286,
      "ands": 2287,
      "Ġsens": 2288,
      "Ġaccess": 2289,
      "Tr": 2290,
      "chan": 2291,
      "ubl": 2292,
      "LL": 2293,
      "Ġpriv": 2294,
      "Ġ==": 2295,
      "Ġsays": 2296,
      "Ġneg": 2297,
      "Ġmor": 2298,
      "Ġhowever": 2299,
      "AM": 2300,
      "Ġmil": 2301,
      "No": 2302,
      "Ġtarget": 2303,
      "Ġmar": 2304,
      "ĠMr": 2305,
      "}^": 2306,
      "mod": 2307,
      "Ġlevels": 2308,
      "return": 2309,
      "ux": 2310,
      "})": 2311,
      "Ġtalk": 2312,
      "100": 2313,
      "Ġpolit": 2314,
      "Ġpress": 2315,
      "Ġroom": 2316,
      "Ġspace": 2317,
      "Ġple": 2318,
      "Ġdiscuss": 2319,
      "af": 2320,
      "aug": 2321,
      "ibility": 2322,
      "Ġsuccess": 2323,
      "ores": 2324,
      "ĠBe": 2325,
      "Ġseen": 2326,
      "use": 2327,
      "Ġdom": 2328,
      "Ġair": 2329,
      "Ġassociated": 2330,
      "ogn": 2331,
      "Ġtrial": 2332,
      "Ġmanag": 2333,
      "Ġcaus": 2334,
      "Ġtook": 2335,
      "Ġver": 2336,
      "fun": 2337,
      "uit": 2338,
      "ales": 2339,
      "Ġinvestig": 2340,
      "Ġenergy": 2341,
      "Ġdefend": 2342,
      "Ġlo": 2343,
      "Ġfac": 2344,
      "ush": 2345,
      "sequ": 2346,
      "How": 2347,
      "ened": 2348,
      "Ġenc": 2349,
      "AD": 2350,
      "ivity": 2351,
      "ids": 2352,
      "Ġbeg": 2353,
      "SE": 2354,
      "asing": 2355,
      "cted": 2356,
      "77": 2357,
      "68": 2358,
      "Ġphot": 2359,
      "Ġnight": 2360,
      "Ġreported": 2361,
      "Ġevent": 2362,
      "Ġage": 2363,
      "key": 2364,
      "gether": 2365,
      "Ġtogether": 2366,
      "Ġ${\\": 2367,
      "uation": 2368,
      "no": 2369,
      "ories": 2370,
      "rug": 2371,
      "Ġbit": 2372,
      "iver": 2373,
      "On": 2374,
      "uf": 2375,
      "stit": 2376,
      "sub": 2377,
      "Ġonce": 2378,
      "čĊ": 2379,
      "Ġresponse": 2380,
      "Ã¶": 2381,
      "ribution": 2382,
      "bib": 2383,
      "uppose": 2384,
      "48": 2385,
      "{{\\": 2386,
      "Ġ)": 2387,
      "inter": 2388,
      "Ġlove": 2389,
      "Ġgroups": 2390,
      "....": 2391,
      "ators": 2392,
      "Ġearly": 2393,
      "verage": 2394,
      "Ġaccount": 2395,
      "conom": 2396,
      "Ġrepl": 2397,
      "ĠMar": 2398,
      "bo": 2399,
      "ged": 2400,
      "ival": 2401,
      "Name": 2402,
      "Ġmaking": 2403,
      "itle": 2404,
      "31": 2405,
      "Ġlower": 2406,
      "mathbf": 2407,
      "Ġamount": 2408,
      "ception": 2409,
      "Ġconv": 2410,
      "viron": 2411,
      "Ġlog": 2412,
      "http": 2413,
      "cret": 2414,
      "OT": 2415,
      "Ġwrit": 2416,
      "55": 2417,
      "ĠState": 2418,
      "Ġhouse": 2419,
      "table": 2420,
      "ony": 2421,
      "Al": 2422,
      "ocus": 2423,
      "Ġrequired": 2424,
      "Ġactivity": 2425,
      "Ġterms": 2426,
      "Ġwent": 2427,
      "cd": 2428,
      "Ġcompared": 2429,
      "Ġrequire": 2430,
      "IG": 2431,
      "Ġvir": 2432,
      "osis": 2433,
      "ĠCo": 2434,
      "angu": 2435,
      "Ġnecess": 2436,
      "class": 2437,
      "Ġaff": 2438,
      "Ġacross": 2439,
      "Ġdevelopment": 2440,
      "ection": 2441,
      "Ġpotential": 2442,
      "Ġdou": 2443,
      "Ġworking": 2444,
      "clude": 2445,
      "AA": 2446,
      "Un": 2447,
      "ĠAmerican": 2448,
      "ION": 2449,
      "Ġinj": 2450,
      "Ġcheck": 2451,
      "ension": 2452,
      "Ġcult": 2453,
      "Ġface": 2454,
      "Ġever": 2455,
      "Ġ50": 2456,
      "Ġfinal": 2457,
      "ians": 2458,
      "Ġann": 2459,
      "Ġimage": 2460,
      "beta": 2461,
      "Ġ%": 2462,
      "ĊĠĠĠĠĠĠĠĠĠ": 2463,
      ".'": 2464,
      "dex": 2465,
      "rodu": 2466,
      "Ð°Ð": 2467,
      "ystem": 2468,
      "Ġpast": 2469,
      "Ġ([": 2470,
      "Ġdeath": 2471,
      "Ġear": 2472,
      "atory": 2473,
      "iction": 2474,
      "Ġcomput": 2475,
      "ption": 2476,
      "enn": 2477,
      "atures": 2478,
      "Ġ([@": 2479,
      "mber": 2480,
      "aintiff": 2481,
      "essage": 2482,
      "à¤": 2483,
      "wh": 2484,
      "ga": 2485,
      "Ġinclude": 2486,
      "ones": 2487,
      "Ġauthor": 2488,
      "Ġbecome": 2489,
      "ĠĊ": 2490,
      "Ġrange": 2491,
      "iation": 2492,
      "Ġrelations": 2493,
      "Ġmicro": 2494,
      "Ġrisk": 2495,
      "ude": 2496,
      "^{-": 2497,
      "]).": 2498,
      "ĠUniversity": 2499,
      "Ġtw": 2500,
      "arrow": 2501,
      "Ġred": 2502,
      "mp": 2503,
      "47": 2504,
      "Ġtext": 2505,
      "Ġdoesn": 2506,
      "Ġexc": 2507,
      "Ġdetail": 2508,
      "Ġdoing": 2509,
      "ges": 2510,
      "89": 2511,
      "There": 2512,
      "Is": 2513,
      "medi": 2514,
      "Ġconditions": 2515,
      "ĠJohn": 2516,
      "une": 2517,
      "----------------------------------------------------------------": 2518,
      "ÂłÂł": 2519,
      "this": 2520,
      "eters": 2521,
      "head": 2522,
      "Ġissue": 2523,
      "ilon": 2524,
      "Ġmeet": 2525,
      "66": 2526,
      "lete": 2527,
      "Ġestabl": 2528,
      "Ġdescribed": 2529,
      "Ġprovided": 2530,
      "istic": 2531,
      "uture": 2532,
      "Ġsepar": 2533,
      "Ġbar": 2534,
      "Ġcomplet": 2535,
      "\"}).": 2536,
      "49": 2537,
      "Ġeffects": 2538,
      "Ġrespons": 2539,
      "Ġobserved": 2540,
      "respond": 2541,
      "imate": 2542,
      "Ġmechan": 2543,
      "Ġchanges": 2544,
      "ĠEng": 2545,
      "Ġasked": 2546,
      "ources": 2547,
      "Type": 2548,
      "Ġfrequ": 2549,
      "Ġcannot": 2550,
      "span": 2551,
      "ĠMay": 2552,
      "Ġsurface": 2553,
      "Ġrole": 2554,
      "oll": 2555,
      "Ġaccording": 2556,
      "Ġmeasure": 2557,
      "Ġpercent": 2558,
      "Ġincreased": 2559,
      "ibr": 2560,
      "Ġresearch": 2561,
      "iter": 2562,
      "Ġep": 2563,
      "Ġmind": 2564,
      "Ġcou": 2565,
      "test": 2566,
      "Ġcompany": 2567,
      "Ġyet": 2568,
      "atter": 2569,
      "Ġcomplex": 2570,
      "Ġothers": 2571,
      "Ġincrease": 2572,
      "DE": 2573,
      "eq": 2574,
      "aced": 2575,
      "icy": 2576,
      "my": 2577,
      "Ġtre": 2578,
      "Ġservice": 2579,
      "ĊĠĠĠĠĠĠĠĠĠĠĠĠĠĠĠĠĠĠĠ": 2580,
      "Ġrather": 2581,
      "\\_": 2582,
      "Ġmoney": 2583,
      "Ġtoward": 2584,
      "elt": 2585,
      "Ġcountry": 2586,
      "irl": 2587,
      "ĠGen": 2588,
      "Ġconduct": 2589,
      "Ġclear": 2590,
      "illed": 2591,
      "sigma": 2592,
      "Ġsection": 2593,
      "ĠSee": 2594,
      "ground": 2595,
      "ĠOne": 2596,
      "87": 2597,
      "So": 2598,
      "ÏĦ": 2599,
      "Ġcontent": 2600,
      "Ġprotein": 2601,
      "Ġsoft": 2602,
      "Ġsource": 2603,
      "ĠPr": 2604,
      "Ġstructure": 2605,
      "time": 2606,
      "Ġmonths": 2607,
      "Ġuser": 2608,
      "sqrt": 2609,
      "ino": 2610,
      "Ġparticip": 2611,
      "bt": 2612,
      "Ġbase": 2613,
      "Ġblood": 2614,
      "ĠCan": 2615,
      "Ġfactors": 2616,
      "pm": 2617,
      "Id": 2618,
      "Ġpick": 2619,
      "Ġfive": 2620,
      "order": 2621,
      "Ġnormal": 2622,
      "ava": 2623,
      "Ġcut": 2624,
      "Ġsignal": 2625,
      "Ġthird": 2626,
      "ucle": 2627,
      "Ġjob": 2628,
      "Ġstandard": 2629,
      "Ġcompon": 2630,
      "roid": 2631,
      "Res": 2632,
      "rix": 2633,
      "Ġ`": 2634,
      "ĠThen": 2635,
      "Ġce": 2636,
      "ING": 2637,
      "ceed": 2638,
      "ĠCar": 2639,
      "02": 2640,
      "Ph": 2641,
      "Ġdri": 2642,
      "Ġcorre": 2643,
      "Ġwhole": 2644,
      "Ġcy": 2645,
      "ogen": 2646,
      "Ġmatter": 2647,
      "CC": 2648,
      "nt": 2649,
      "~~": 2650,
      "ules": 2651,
      "ĠBr": 2652,
      "ey": 2653,
      "Ġid": 2654,
      "equ": 2655,
      "ĠGod": 2656,
      "Ċĉĉĉ": 2657,
      "ixed": 2658,
      "Ġland": 2659,
      "Ġtemper": 2660,
      "Ġcalcul": 2661,
      "ependent": 2662,
      "rew": 2663,
      "Ċĉĉĉĉ": 2664,
      "ortun": 2665,
      "now": 2666,
      "ĠFig": 2667,
      "Ġtaken": 2668,
      "Ġagre": 2669,
      "Ġsite": 2670,
      "vironment": 2671,
      "ober": 2672,
      "%)": 2673,
      "ĠĠĠĠĠĠĠĠĠĠ": 2674,
      "Ġsocial": 2675,
      "rr": 2676,
      "Ġquant": 2677,
      "ĠCoun": 2678,
      "ache": 2679,
      "minist": 2680,
      "Ġclin": 2681,
      "itch": 2682,
      "irm": 2683,
      "Ġperformed": 2684,
      "Ġflow": 2685,
      "Ġactually": 2686,
      "Ġdam": 2687,
      "artment": 2688,
      "oph": 2689,
      "mathrm": 2690,
      "86": 2691,
      "Ġshowed": 2692,
      "09": 2693,
      "raft": 2694,
      "ops": 2695,
      "AG": 2696,
      "OS": 2697,
      ".)": 2698,
      "arent": 2699,
      "www": 2700,
      "Ġlimit": 2701,
      "icult": 2702,
      "string": 2703,
      "}{\\": 2704,
      "ruction": 2705,
      "ches": 2706,
      "ĊĊĠĠĠĠĠĠĠ": 2707,
      "Ġbelow": 2708,
      "Ġmultiple": 2709,
      "Ġvarious": 2710,
      "alt": 2711,
      "Ġanything": 2712,
      "bit": 2713,
      "Ġspecial": 2714,
      "Ġversion": 2715,
      "Ġhalf": 2716,
      "Ġnothing": 2717,
      "Ġsystems": 2718,
      "ĠRep": 2719,
      "Ġprior": 2720,
      "ze": 2721,
      "Ġshows": 2722,
      "Ġcorrespond": 2723,
      "Ġbehav": 2724,
      "Ġdemon": 2725,
      "ĠWith": 2726,
      "off": 2727,
      "Ġdisease": 2728,
      "ached": 2729,
      "><": 2730,
      "ires": 2731,
      "ĠAfter": 2732,
      "gamma": 2733,
      "Ġclos": 2734,
      "abor": 2735,
      "Ġdetect": 2736,
      "urope": 2737,
      "ession": 2738,
      "Ġfood": 2739,
      "Ġbreak": 2740,
      "ensity": 2741,
      "uration": 2742,
      "Ġregard": 2743,
      "idered": 2744,
      "ĠTe": 2745,
      "Ġapproach": 2746,
      "gment": 2747,
      "Ġrequest": 2748,
      "Ġpropos": 2749,
      "Ġbenef": 2750,
      "imum": 2751,
      "ĠMy": 2752,
      "Ġsyn": 2753,
      "date": 2754,
      "omet": 2755,
      "ĊĊĊ": 2756,
      "Ġviol": 2757,
      "Ġmembers": 2758,
      "84": 2759,
      "big": 2760,
      "Ġalmost": 2761,
      "Ġpositive": 2762,
      "ĠĠĠĠĠĠĠĠĠĠĠĠĠĠĠĠĠĠĠĠĠĠĠĠĠĠĠĠĠĠĠĠĠĠĠĠĠĠĠĠĠĠĠĠĠĠĠĠĠĠĠĠĠĠĠĠĠĠĠĠĠĠĠĠĠĠĠĠĠĠĠĠĠĠĠĠĠĠĠĠĠĠĠĠĠĠĠĠĠĠĠĠĠĠĠĠĠĠĠĠĠĠĠĠĠĠĠĠĠĠĠĠĠĠĠĠĠĠĠĠĠĠĠĠĠĠĠĠ": 2763,
      "umber": 2764,
      "List": 2765,
      "+\\": 2766,
      "inary": 2767,
      "Ã¥": 2768,
      ")(": 2769,
      "Ġfocus": 2770,
      "ero": 2771,
      "cular": 2772,
      "That": 2773,
      "Ġmoment": 2774,
      "CH": 2775,
      "String": 2776,
      "Ġeval": 2777,
      "ief": 2778,
      "Ġlikely": 2779,
      "Ġut": 2780,
      "Ġmax": 2781,
      "Ġconcer": 2782,
      "Ġconsidered": 2783,
      "pping": 2784,
      "Ġ||": 2785,
      "Ġconcent": 2786,
      "79": 2787,
      "uk": 2788,
      "Ġmakes": 2789,
      "ĠPat": 2790,
      "Ġmarket": 2791,
      "Ġpoints": 2792,
      "Ġexperience": 2793,
      "Ġcreate": 2794,
      "OP": 2795,
      "Ġ(*": 2796,
      "Ġobtained": 2797,
      "Ġheart": 2798,
      "load": 2799,
      "Ġsix": 2800,
      "Ġweight": 2801,
      "ĠâĢĺ": 2802,
      "Ġfactor": 2803,
      "ike": 2804,
      "Ġq": 2805,
      "Ġblack": 2806,
      "\")": 2807,
      "log": 2808,
      "Sh": 2809,
      "Ġclose": 2810,
      "where": 2811,
      "Ġspect": 2812,
      "Ġdevice": 2813,
      "onal": 2814,
      "lim": 2815,
      "ĠYork": 2816,
      "Ġsus": 2817,
      "Ġaffect": 2818,
      "Ġlooking": 2819,
      "Ġtrying": 2820,
      "iding": 2821,
      "Ġnear": 2822,
      "comm": 2823,
      "ips": 2824,
      "Ġsex": 2825,
      "Ġoccur": 2826,
      "Ġer": 2827,
      "ĠChrist": 2828,
      "Ġtable": 2829,
      "Ġsil": 2830,
      "Ġcross": 2831,
      "Ġhtt": 2832,
      "Ġcreat": 2833,
      "Ġdifficult": 2834,
      "itting": 2835,
      "Ġdig": 2836,
      "Ġdemonstr": 2837,
      "Val": 2838,
      "Ġrat": 2839,
      "Ġcustom": 2840,
      "Figure": 2841,
      "ideo": 2842,
      "aff": 2843,
      "cing": 2844,
      "rec": 2845,
      "Ġcity": 2846,
      "Ġcause": 2847,
      "anguage": 2848,
      "Ġmagn": 2849,
      "^\\": 2850,
      "td": 2851,
      "Ġfuture": 2852,
      "Ġill": 2853,
      "Ġdrug": 2854,
      "struct": 2855,
      "Ġdat": 2856,
      "ĠĠĠĠĠĠĠĠĠĠĠĠĠĠĠ": 2857,
      "but": 2858,
      "rho": 2859,
      "Ġhom": 2860,
      "Cont": 2861,
      "Ġentire": 2862,
      "Î¿": 2863,
      "Ġdecre": 2864,
      "isc": 2865,
      "âĢ¦": 2866,
      "Ġproperty": 2867,
      "Ġbelieve": 2868,
      "à¸": 2869,
      "Ġste": 2870,
      "ÐµÐ": 2871,
      "Ġyoung": 2872,
      "Ġmut": 2873,
      "001": 2874,
      "orld": 2875,
      "Ġstring": 2876,
      "value": 2877,
      "ilt": 2878,
      "Ġadded": 2879,
      "iet": 2880,
      "ply": 2881,
      "Ġconsist": 2882,
      "Ġfav": 2883,
      "ĠFl": 2884,
      "Ġparent": 2885,
      "ii": 2886,
      "see": 2887,
      ")*": 2888,
      "Ġnat": 2889,
      "ties": 2890,
      "Ġtax": 2891,
      "Ġhistory": 2892,
      "ternal": 2893,
      "IM": 2894,
      "Ġeconom": 2895,
      "ĠBy": 2896,
      "Ġang": 2897,
      "Ġapplication": 2898,
      "Ġintegr": 2899,
      "Ġsolution": 2900,
      "Ġtrad": 2901,
      "ama": 2902,
      "ĠAss": 2903,
      "08": 2904,
      "Ġrelated": 2905,
      "Ar": 2906,
      "ulated": 2907,
      "Ġincluded": 2908,
      "Ġminutes": 2909,
      "ball": 2910,
      "$-": 2911,
      "------------": 2912,
      "year": 2913,
      "Ġfront": 2914,
      "body": 2915,
      "Ġcontr": 2916,
      "////": 2917,
      "Ġheld": 2918,
      "Ġregion": 2919,
      "fully": 2920,
      "ros": 2921,
      "07": 2922,
      "Ġcancer": 2923,
      "rown": 2924,
      "AB": 2925,
      "Ġstory": 2926,
      "Ġeyes": 2927,
      "Ġansw": 2928,
      "Ġpaper": 2929,
      "etition": 2930,
      "Ġdefined": 2931,
      "ĠCent": 2932,
      "ĠAN": 2933,
      "Ġidea": 2934,
      "resh": 2935,
      "Ġur": 2936,
      "itten": 2937,
      "Ġflu": 2938,
      "Ġassess": 2939,
      "Ġwalk": 2940,
      "03": 2941,
      "chie": 2942,
      "lying": 2943,
      "Ġdecl": 2944,
      "42": 2945,
      "App": 2946,
      "],[@": 2947,
      "import": 2948,
      "ĠIN": 2949,
      "46": 2950,
      "ĠSte": 2951,
      "Ġseason": 2952,
      "Ġaddress": 2953,
      "Ġrelationship": 2954,
      "hel": 2955,
      "ĠPar": 2956,
      "Ġloss": 2957,
      "Ġpubl": 2958,
      "Ġreceived": 2959,
      "ada": 2960,
      "aged": 2961,
      "Ġseries": 2962,
      "Ġpo": 2963,
      "Ñĥ": 2964,
      "Ġfall": 2965,
      "inn": 2966,
      "rs": 2967,
      "Ġdeal": 2968,
      "Ġsimple": 2969,
      "Ġgetting": 2970,
      "ster": 2971,
      "Ġblock": 2972,
      "Col": 2973,
      "html": 2974,
      "Ġrespectively": 2975,
      "andom": 2976,
      "aging": 2977,
      "Ġlength": 2978,
      "ences": 2979,
      "ening": 2980,
      "xi": 2981,
      "Ġmaint": 2982,
      "Ġattack": 2983,
      "Ġimmun": 2984,
      "Ġmiss": 2985,
      "Ġcamp": 2986,
      "Ġworks": 2987,
      "uly": 2988,
      "Î¹": 2989,
      "Ġnetwork": 2990,
      "Ġvoid": 2991,
      "*,": 2992,
      "She": 2993,
      "Ġhimself": 2994,
      "oud": 2995,
      "iting": 2996,
      "Ġaccept": 2997,
      "pecially": 2998,
      "Ġappl": 2999,
      "Ġwords": 3000,
      "Ġ=>": 3001,
      "dro": 3002,
      "ĠTHE": 3003,
      "mitted": 3004,
      "delta": 3005,
      "izing": 3006,
      "Ġcoll": 3007,
      "iqu": 3008,
      "ledge": 3009,
      "ĠMore": 3010,
      "57": 3011,
      "Ġsignificantly": 3012,
      "ises": 3013,
      "pose": 3014,
      "ĠÂ§": 3015,
      "US": 3016,
      "ols": 3017,
      "plement": 3018,
      "Ġ$(": 3019,
      "wise": 3020,
      "Ġthus": 3021,
      "like": 3022,
      "nu": 3023,
      "net": 3024,
      "verse": 3025,
      "bed": 3026,
      "IR": 3027,
      "tic": 3028,
      "Ġdefin": 3029,
      "ems": 3030,
      "199": 3031,
      "ĠHis": 3032,
      "Ġbound": 3033,
      "Ġtum": 3034,
      "ĠEn": 3035,
      "Ġfig": 3036,
      "Ġlearn": 3037,
      "Ġhours": 3038,
      "When": 3039,
      "leq": 3040,
      "Ġmillion": 3041,
      "isf": 3042,
      "../": 3043,
      "ĠMc": 3044,
      "Ġperformance": 3045,
      "59": 3046,
      "Ġsaw": 3047,
      "Ġlink": 3048,
      "selves": 3049,
      "ĠMed": 3050,
      "obal": 3051,
      "ĠAm": 3052,
      "Ġstarted": 3053,
      "Ġstates": 3054,
      "Ġprivate": 3055,
      "oms": 3056,
      "Ġcontact": 3057,
      "Ġneeded": 3058,
      "ĠĠĠĠĠĠĠĠĠĠĠĠ": 3059,
      "ĠEurope": 3060,
      "Ġdecision": 3061,
      "more": 3062,
      "Ġtoday": 3063,
      "Ġdifference": 3064,
      "ferences": 3065,
      "Ġvia": 3066,
      "Ġadj": 3067,
      "umn": 3068,
      "Â±": 3069,
      "gree": 3070,
      "06": 3071,
      "Ġpopulation": 3072,
      "></": 3073,
      "All": 3074,
      "Ġpain": 3075,
      "Ġbad": 3076,
      "IL": 3077,
      "Ġwanted": 3078,
      "43": 3079,
      "}}\\": 3080,
      "Ġadditional": 3081,
      "Ġmethods": 3082,
      "ĠMan": 3083,
      "Ġinhib": 3084,
      "Ġfilm": 3085,
      "anced": 3086,
      "inding": 3087,
      "do": 3088,
      "Ġchall": 3089,
      "Ã¼": 3090,
      "Ġshall": 3091,
      "Ġintrodu": 3092,
      "ili": 3093,
      "ĠCor": 3094,
      "Ġsomeone": 3095,
      "ĠGe": 3096,
      "uth": 3097,
      "Ġeff": 3098,
      "miss": 3099,
      "ocal": 3100,
      "Ġmother": 3101,
      "Ġpattern": 3102,
      "Ġtherefore": 3103,
      "Ġlines": 3104,
      "ĠNot": 3105,
      "inks": 3106,
      "anks": 3107,
      "Ġinflu": 3108,
      "ender": 3109,
      "Ġpatient": 3110,
      "overed": 3111,
      "Ġassum": 3112,
      "with": 3113,
      "Ġcommunity": 3114,
      "tau": 3115,
      "Ġgrowth": 3116,
      ")}": 3117,
      "comp": 3118,
      "istance": 3119,
      "Ġcard": 3120,
      "76": 3121,
      "/*": 3122,
      "IP": 3123,
      "theta": 3124,
      "TR": 3125,
      "Ġenvironment": 3126,
      "Ġ21": 3127,
      "Ġparty": 3128,
      "gl": 3129,
      "ĠPol": 3130,
      "ocr": 3131,
      "Ġindu": 3132,
      "Ġseems": 3133,
      "ensive": 3134,
      "Ġbegin": 3135,
      "oke": 3136,
      "Ġcompl": 3137,
      "![": 3138,
      "Ġitself": 3139,
      "file": 3140,
      "78": 3141,
      "Ø§": 3142,
      "Ġachie": 3143,
      "atus": 3144,
      "View": 3145,
      "atively": 3146,
      "Î½": 3147,
      "Ġdisplay": 3148,
      "oved": 3149,
      "Ġdie": 3150,
      "omega": 3151,
      "Wh": 3152,
      "Ġlive": 3153,
      "Ġdest": 3154,
      "ych": 3155,
      "41": 3156,
      "Ġimprove": 3157,
      "Ġquick": 3158,
      "Ġword": 3159,
      "reet": 3160,
      "gress": 3161,
      "ĠAct": 3162,
      "amed": 3163,
      "Ġprobably": 3164,
      "atal": 3165,
      "ĠDo": 3166,
      "Ġhost": 3167,
      "Ġwhite": 3168,
      "based": 3169,
      "yp": 3170,
      "ills": 3171,
      "EM": 3172,
      "ĠIm": 3173,
      "Ġfoot": 3174,
      "PR": 3175,
      "Ġappear": 3176,
      "Ġattempt": 3177,
      "arc": 3178,
      "vant": 3179,
      "odes": 3180,
      "times": 3181,
      "define": 3182,
      "Ġrecogn": 3183,
      "ying": 3184,
      "Ġinstead": 3185,
      "Ġsearch": 3186,
      "Ġfund": 3187,
      "come": 3188,
      "ĠMe": 3189,
      "ynam": 3190,
      "ilities": 3191,
      "Ġtaking": 3192,
      "ï¼": 3193,
      "eks": 3194,
      "Ġreve": 3195,
      "ĠDr": 3196,
      "used": 3197,
      "Ġneeds": 3198,
      "Ġpan": 3199,
      "Ġmotion": 3200,
      "urch": 3201,
      "Ġ\\\\": 3202,
      "ĠĠĠĠĠĠĠĠĠĠĠĠĠ": 3203,
      "unch": 3204,
      "iles": 3205,
      "Ġinvolved": 3206,
      "CL": 3207,
      "56": 3208,
      "iddle": 3209,
      "Ġmodels": 3210,
      "code": 3211,
      "Ġbehind": 3212,
      "Ġstep": 3213,
      "partial": 3214,
      "Ġpret": 3215,
      "Ġground": 3216,
      "comes": 3217,
      "ä¸": 3218,
      "gest": 3219,
      "My": 3220,
      "Ġfalse": 3221,
      "uments": 3222,
      "stant": 3223,
      "ederal": 3224,
      "pri": 3225,
      "Ġgirl": 3226,
      "ha": 3227,
      "ĠCity": 3228,
      "des": 3229,
      "ana": 3230,
      "OC": 3231,
      "Ġadminist": 3232,
      "Data": 3233,
      "________": 3234,
      "Table": 3235,
      "Ġoriginal": 3236,
      "Ġproblems": 3237,
      "Ġservices": 3238,
      "Ġpage": 3239,
      "Ġquite": 3240,
      "ste": 3241,
      "Ġexact": 3242,
      "light": 3243,
      "Ġexec": 3244,
      "83": 3245,
      "PE": 3246,
      "olve": 3247,
      "ese": 3248,
      "Ġcomes": 3249,
      "âĢĲ": 3250,
      "Se": 3251,
      "IV": 3252,
      "Ġeverything": 3253,
      "ites": 3254,
      "...\"": 3255,
      "aled": 3256,
      "Ġdefendant": 3257,
      "astic": 3258,
      "infty": 3259,
      "Ġknew": 3260,
      "Ġlooked": 3261,
      "ĠGu": 3262,
      "ĊĠĠĠĠĠĠĠĠĠĠĠĠĠĠĠĠĠĠĠĠĠĠĠĠĠĠĠĠĠĠĠĠ": 3263,
      "Ġexpected": 3264,
      "Ġess": 3265,
      "xim": 3266,
      "ĠCont": 3267,
      "Ġdistribution": 3268,
      "FF": 3269,
      "Ġanti": 3270,
      "OL": 3271,
      "Â°": 3272,
      "Ġvo": 3273,
      "ecause": 3274,
      "Ġproduction": 3275,
      "Ġtemperature": 3276,
      "ĠQu": 3277,
      "icense": 3278,
      "ĠÂ±": 3279,
      "Ġinput": 3280,
      "size": 3281,
      "Ġsense": 3282,
      "Ġpredict": 3283,
      "Ġelement": 3284,
      "Ġ29": 3285,
      "Ġdistrict": 3286,
      "\");": 3287,
      "oo": 3288,
      "Ġfire": 3289,
      "Ġquality": 3290,
      "])": 3291,
      "aving": 3292,
      "Ġles": 3293,
      "Ġcompar": 3294,
      "Ġcolor": 3295,
      "hem": 3296,
      "Ġstay": 3297,
      "arr": 3298,
      "PS": 3299,
      "Ġsem": 3300,
      "Ġload": 3301,
      "Ġinitial": 3302,
      "}$,": 3303,
      "Ġinside": 3304,
      "book": 3305,
      "document": 3306,
      "Ġ22": 3307,
      "ĠThus": 3308,
      "Ġnecessary": 3309,
      "Ġcontract": 3310,
      "Ġestim": 3311,
      "Ã£": 3312,
      "ĠNational": 3313,
      "Ã§": 3314,
      "ĠDep": 3315,
      "Ġindust": 3316,
      "Ġdim": 3317,
      "Ġ$$": 3318,
      "sk": 3319,
      "Ġgene": 3320,
      "position": 3321,
      "UR": 3322,
      "ĠGerm": 3323,
      "Ġbring": 3324,
      "Ġnucle": 3325,
      "rote": 3326,
      "ĠPres": 3327,
      "eration": 3328,
      "UT": 3329,
      "Ġwin": 3330,
      "Ġfriend": 3331,
      "Ġrecent": 3332,
      "._": 3333,
      "Ġinstall": 3334,
      "dom": 3335,
      "Ġeduc": 3336,
      "ribute": 3337,
      "MS": 3338,
      "ulations": 3339,
      "Ġespecially": 3340,
      "inally": 3341,
      "bf": 3342,
      "Ġwait": 3343,
      "ĠJan": 3344,
      "Ġoutside": 3345,
      "Ġ...": 3346,
      "Ġson": 3347,
      "ae": 3348,
      "Ġ28": 3349,
      "Ġbir": 3350,
      "Im": 3351,
      "Ġproced": 3352,
      "\\\\": 3353,
      "den": 3354,
      "ades": 3355,
      "Ġlonger": 3356,
      "53": 3357,
      "ram": 3358,
      "Ġimplement": 3359,
      "utions": 3360,
      "Ġpresence": 3361,
      "quad": 3362,
      "}$.": 3363,
      "box": 3364,
      "Ġsimply": 3365,
      "ĠDef": 3366,
      "Ġpersonal": 3367,
      "Ġexperiment": 3368,
      "Ġdoor": 3369,
      "illi": 3370,
      "Ġjo": 3371,
      "lig": 3372,
      "rc": 3373,
      "Ġissues": 3374,
      "Ġtiss": 3375,
      "Ġpie": 3376,
      "ado": 3377,
      "With": 3378,
      "Ġprint": 3379,
      "ĠĠĠĠĠĠĠĠĠĠĠĠĠĠ": 3380,
      "bre": 3381,
      "Ġclinical": 3382,
      "Ġ(-": 3383,
      "Ġâ": 3384,
      "rav": 3385,
      "Ġfeatures": 3386,
      "Ġ40": 3387,
      "Ġaverage": 3388,
      "Ġdocument": 3389,
      "ging": 3390,
      "vious": 3391,
      "Ġfather": 3392,
      "Îµ": 3393,
      "Ġevents": 3394,
      "Ġbecame": 3395,
      "itude": 3396,
      "istics": 3397,
      "hers": 3398,
      "bor": 3399,
      "Ġprovides": 3400,
      "')": 3401,
      "Ġwall": 3402,
      "Ġcapt": 3403,
      "At": 3404,
      "Ġstra": 3405,
      "rapy": 3406,
      "Ġbegan": 3407,
      "Ġphase": 3408,
      "state": 3409,
      "Ġsample": 3410,
      "Ġcorrel": 3411,
      "bject": 3412,
      "Ġdetermined": 3413,
      "Ġsett": 3414,
      "Ð»": 3415,
      "Ġwoman": 3416,
      "Ġspecies": 3417,
      "word": 3418,
      "ĠAg": 3419,
      "Ġmedia": 3420,
      "ccording": 3421,
      "olic": 3422,
      "field": 3423,
      "++": 3424,
      "Ġsequence": 3425,
      "Ġcomplete": 3426,
      "Ġfem": 3427,
      "rim": 3428,
      "width": 3429,
      "Ġwrong": 3430,
      "dis": 3431,
      "Ġsurv": 3432,
      "sl": 3433,
      "Ġeffort": 3434,
      "Ġ27": 3435,
      "Ġ26": 3436,
      "ĠCD": 3437,
      "Ġformer": 3438,
      "54": 3439,
      "Ġmusic": 3440,
      "arily": 3441,
      "Delta": 3442,
      "Ġdu": 3443,
      "clusion": 3444,
      "ymb": 3445,
      "\".": 3446,
      "refore": 3447,
      "Ġlanguage": 3448,
      "Ġsatisf": 3449,
      "osition": 3450,
      "Ġcorrect": 3451,
      "ĠBo": 3452,
      "Ġoutput": 3453,
      "mary": 3454,
      "]{},": 3455,
      "pre": 3456,
      "Ġdiagn": 3457,
      "\\*": 3458,
      "cription": 3459,
      "raction": 3460,
      "Ġcommunic": 3461,
      "ronic": 3462,
      "By": 3463,
      "Ġremain": 3464,
      "aves": 3465,
      "dered": 3466,
      "su": 3467,
      "Ġslow": 3468,
      "Ġdepend": 3469,
      "Ġfunctions": 3470,
      "Ġge": 3471,
      "uous": 3472,
      "Ġpressure": 3473,
      "const": 3474,
      "Ġox": 3475,
      "Ġ/*": 3476,
      "Ġeasy": 3477,
      "Ġmole": 3478,
      "RNA": 3479,
      "Ġlack": 3480,
      "ĠOF": 3481,
      "Ġplaintiff": 3482,
      "Ġstrateg": 3483,
      "Ġstudents": 3484,
      "elling": 3485,
      "Ġimpact": 3486,
      "down": 3487,
      "Ġpoly": 3488,
      "ENT": 3489,
      "Ġforce": 3490,
      "Ġcopy": 3491,
      "Ġvideo": 3492,
      "Pl": 3493,
      "ospital": 3494,
      "Ġ23": 3495,
      "Ġir": 3496,
      "Ġwindow": 3497,
      "px": 3498,
      "Ġhor": 3499,
      "Ġhyp": 3500,
      "Ġcry": 3501,
      "olds": 3502,
      "^*": 3503,
      "Ñı": 3504,
      "Ġprinc": 3505,
      "ĠAb": 3506,
      "82": 3507,
      "oon": 3508,
      "Ġprec": 3509,
      "Ġtypes": 3510,
      "Ġhot": 3511,
      "ĠPart": 3512,
      "Ġpolice": 3513,
      "airs": 3514,
      "Ġrunning": 3515,
      "itary": 3516,
      "Ġsoon": 3517,
      "actions": 3518,
      "OD": 3519,
      "Ġphysical": 3520,
      "Ġstri": 3521,
      "Ġdate": 3522,
      "Ġstop": 3523,
      "Ġhope": 3524,
      "era": 3525,
      "idge": 3526,
      "Ġacid": 3527,
      "SS": 3528,
      "that": 3529,
      "Ġsamples": 3530,
      "Ġturned": 3531,
      "ĠNe": 3532,
      "Ġquestions": 3533,
      "Ġgave": 3534,
      "itation": 3535,
      "annel": 3536,
      "Ġanaly": 3537,
      "Ġderiv": 3538,
      "Ã¨": 3539,
      "Ġtrack": 3540,
      "Ġmemory": 3541,
      "Ġwritten": 3542,
      "Ġfelt": 3543,
      "ags": 3544,
      "ĠPer": 3545,
      "En": 3546,
      "72": 3547,
      "Ġisn": 3548,
      "sim": 3549,
      "list": 3550,
      "Ġcoming": 3551,
      "Ġcred": 3552,
      "Ġleave": 3553,
      "Ġchem": 3554,
      "ĠRev": 3555,
      "haps": 3556,
      "icon": 3557,
      "Ġmember": 3558,
      "Ġpresented": 3559,
      "Ġfollowed": 3560,
      "umb": 3561,
      "Ġcreated": 3562,
      "Ġlate": 3563,
      "Ġhands": 3564,
      "Ġofficial": 3565,
      "74": 3566,
      "ributed": 3567,
      "čĊĠĠĠ": 3568,
      "Ġpolitical": 3569,
      "Ġrights": 3570,
      "63": 3571,
      "Ġ},": 3572,
      "Ġheav": 3573,
      "Ġsle": 3574,
      "param": 3575,
      "Ġeffective": 3576,
      "|\\": 3577,
      "Ġten": 3578,
      "Ġforward": 3579,
      "Ġproducts": 3580,
      "ogle": 3581,
      "tilde": 3582,
      "52": 3583,
      "Ġpack": 3584,
      "Ġrev": 3585,
      "ĠPe": 3586,
      "Ġdirectly": 3587,
      "Ġvalid": 3588,
      "Ġwasn": 3589,
      "Ġsound": 3590,
      "cm": 3591,
      "ett": 3592,
      "81": 3593,
      "Gr": 3594,
      "Ġevalu": 3595,
      "Ġconfig": 3596,
      "Ġtried": 3597,
      "Ġconstit": 3598,
      "ĠEl": 3599,
      "Ġbur": 3600,
      "Ġscreen": 3601,
      "Ġparameters": 3602,
      "Ġelements": 3603,
      "ega": 3604,
      "Ġindex": 3605,
      "tered": 3606,
      "Ġproperties": 3607,
      "Ġgenes": 3608,
      "Ġselect": 3609,
      "sm": 3610,
      "ague": 3611,
      "ken": 3612,
      "Ġ!=": 3613,
      "https": 3614,
      "char": 3615,
      "ĠBrit": 3616,
      "ĠGo": 3617,
      "Ġweeks": 3618,
      "ĠEd": 3619,
      "dev": 3620,
      "lease": 3621,
      "Ġago": 3622,
      "lier": 3623,
      "rief": 3624,
      "Ġprimary": 3625,
      "Ġnatural": 3626,
      "ula": 3627,
      "ults": 3628,
      "Ġincreasing": 3629,
      "Ġwrite": 3630,
      "ĠComp": 3631,
      "Ġrandom": 3632,
      "Get": 3633,
      "Ġcontext": 3634,
      "Ġnull": 3635,
      "Ġidentified": 3636,
      "Ġfollows": 3637,
      "Ġconstant": 3638,
      "hood": 3639,
      "Ġknowledge": 3640,
      "Ġmi": 3641,
      "lin": 3642,
      "ĠPa": 3643,
      "Ġdark": 3644,
      "ĠWorld": 3645,
      "Ġpolicy": 3646,
      "ishing": 3647,
      "Ġaccom": 3648,
      "acc": 3649,
      "Not": 3650,
      "Ġconsum": 3651,
      "Ġbuilding": 3652,
      "Ġdetermine": 3653,
      "Ġalleg": 3654,
      "73": 3655,
      "ĠDist": 3656,
      "Ġprevent": 3657,
      "ements": 3658,
      "point": 3659,
      "ĠWar": 3660,
      "Ġcontroll": 3661,
      "Ġanswer": 3662,
      "Ġlost": 3663,
      "\";": 3664,
      "Ġframe": 3665,
      "ĠDes": 3666,
      "ĠReg": 3667,
      "Ġnews": 3668,
      "iber": 3669,
      "Ġimmedi": 3670,
      "fs": 3671,
      "Ġareas": 3672,
      "Ġbott": 3673,
      "Ġmach": 3674,
      "trans": 3675,
      "Ġdeep": 3676,
      "71": 3677,
      "Ġgas": 3678,
      "clus": 3679,
      "58": 3680,
      "amm": 3681,
      "apan": 3682,
      "ils": 3683,
      "ĠSouth": 3684,
      "Ã£o": 3685,
      "Ġsort": 3686,
      "Ġgreater": 3687,
      "Ġinvention": 3688,
      "ĠMin": 3689,
      "ĠInc": 3690,
      "oma": 3691,
      "Ġwhose": 3692,
      "Ġavoid": 3693,
      "Ġsoftware": 3694,
      "lementary": 3695,
      "kn": 3696,
      "ĠSch": 3697,
      "Ġwatch": 3698,
      "culate": 3699,
      "Ġtransfer": 3700,
      "function": 3701,
      "uary": 3702,
      "oe": 3703,
      "****************": 3704,
      "Ġpict": 3705,
      "Ġ;": 3706,
      "Ġexcept": 3707,
      "Ġstatus": 3708,
      "include": 3709,
      "Ġlimited": 3710,
      "Ġmap": 3711,
      "51": 3712,
      "}(\\": 3713,
      "Ġps": 3714,
      "Ġdeveloped": 3715,
      "fection": 3716,
      "CD": 3717,
      "Ġfavor": 3718,
      "ĠII": 3719,
      "Ġbasis": 3720,
      "Ðº": 3721,
      "Ġbed": 3722,
      "ĠAf": 3723,
      "Ps": 3724,
      "]^": 3725,
      "They": 3726,
      "Ġrelease": 3727,
      "array": 3728,
      "ĠNorth": 3729,
      "Ġrefer": 3730,
      "Ġmis": 3731,
      "Ġapplied": 3732,
      "Ġtraining": 3733,
      "ĠRuss": 3734,
      "Ġheard": 3735,
      "Ġ?": 3736,
      "ica": 3737,
      "Ġalthough": 3738,
      "Ġmedical": 3739,
      "Ġstyle": 3740,
      "icles": 3741,
      "lish": 3742,
      "asons": 3743,
      "Ġful": 3744,
      "Ġability": 3745,
      "Ġthemselves": 3746,
      "ĠAug": 3747,
      "Ġmention": 3748,
      "ĠIntern": 3749,
      "ius": 3750,
      "anger": 3751,
      "ĠAust": 3752,
      "Ġnature": 3753,
      "Ġmice": 3754,
      "reng": 3755,
      "ography": 3756,
      "gn": 3757,
      "apter": 3758,
      "ĠSim": 3759,
      "rial": 3760,
      "Ġmatch": 3761,
      "Ġtheory": 3762,
      "62": 3763,
      "vere": 3764,
      "Ġprep": 3765,
      "hern": 3766,
      "men": 3767,
      "Ġaw": 3768,
      "Ġsecur": 3769,
      "och": 3770,
      "ĠJust": 3771,
      "Ġautom": 3772,
      "Ġplayers": 3773,
      "ĠSm": 3774,
      "error": 3775,
      "ĠÐ¿": 3776,
      "Ġreduced": 3777,
      "ĠTrump": 3778,
      "Ġsal": 3779,
      "Ġanyone": 3780,
      "Ġarray": 3781,
      "Ġparticularly": 3782,
      "ios": 3783,
      "pite": 3784,
      "Ġpull": 3785,
      "Ġpreviously": 3786,
      "rupt": 3787,
      "MA": 3788,
      "plate": 3789,
      "Ġround": 3790,
      "Ġopportun": 3791,
      "lege": 3792,
      "Ġveh": 3793,
      "Ġrespond": 3794,
      "Ġcompan": 3795,
      "erson": 3796,
      "Ġincludes": 3797,
      "Ġusually": 3798,
      "rangle": 3799,
      "ager": 3800,
      "IF": 3801,
      "Ġsn": 3802,
      "pper": 3803,
      "fra": 3804,
      "Ġgrad": 3805,
      "Ġreference": 3806,
      "Ġund": 3807,
      "ĠSome": 3808,
      "Ġfast": 3809,
      "Err": 3810,
      "Ġliving": 3811,
      "Ġdraw": 3812,
      "ĠTherefore": 3813,
      "uel": 3814,
      "Ġalone": 3815,
      "Ġren": 3816,
      "Ġbox": 3817,
      "Ġrecomm": 3818,
      "Ġfight": 3819,
      "Ġaud": 3820,
      "ĠOct": 3821,
      ")$.": 3822,
      "ivil": 3823,
      "ĠOur": 3824,
      "iments": 3825,
      "ĠDav": 3826,
      "ellow": 3827,
      "Ġlayer": 3828,
      "Ġwebs": 3829,
      "cdot": 3830,
      "Ġcontain": 3831,
      "61": 3832,
      "lor": 3833,
      "ashing": 3834,
      "Ġcover": 3835,
      "isions": 3836,
      "Ad": 3837,
      "roph": 3838,
      "Ġgenerally": 3839,
      "ĠFurther": 3840,
      "oles": 3841,
      "Ġrepe": 3842,
      "Ġ:=": 3843,
      "aches": 3844,
      "print": 3845,
      "Ġdead": 3846,
      "zy": 3847,
      "De": 3848,
      "earch": 3849,
      "fered": 3850,
      "\\])": 3851,
      "rite": 3852,
      "*~": 3853,
      "ĠSuppose": 3854,
      "igen": 3855,
      "ĠHere": 3856,
      "Ġ&&": 3857,
      "Ġfriends": 3858,
      "PL": 3859,
      "Ġhref": 3860,
      "Ġprot": 3861,
      "Ġbroad": 3862,
      "Ġpublished": 3863,
      "Qu": 3864,
      "Ġanim": 3865,
      "script": 3866,
      "illing": 3867,
      "Ïĥ": 3868,
      "orks": 3869,
      "iven": 3870,
      "SD": 3871,
      "Ġnational": 3872,
      "pril": 3873,
      "Ġtown": 3874,
      "otic": 3875,
      "Ã³n": 3876,
      "Ġnote": 3877,
      "pen": 3878,
      "Ġbehavior": 3879,
      "Ġdriv": 3880,
      "joy": 3881,
      "ĠDNA": 3882,
      "Ġjudgment": 3883,
      "Ġdirection": 3884,
      "Ġspeed": 3885,
      "TH": 3886,
      "EL": 3887,
      "Ġimages": 3888,
      "Ġvan": 3889,
      "Ġexpress": 3890,
      "Ġ(\\[": 3891,
      "gor": 3892,
      "ĊĠĠĠĠĠĠ": 3893,
      "Ġshare": 3894,
      "osph": 3895,
      "Ġsqu": 3896,
      "Ġlos": 3897,
      "Ġimpl": 3898,
      "met": 3899,
      "ĠWhile": 3900,
      "inated": 3901,
      "Value": 3902,
      "anch": 3903,
      "Ġnumbers": 3904,
      "ĠLa": 3905,
      "Ġoffice": 3906,
      "Ġindependent": 3907,
      "Ġstatement": 3908,
      "Ġonline": 3909,
      "Ġdifferences": 3910,
      "Ġopin": 3911,
      "Ġtou": 3912,
      "acement": 3913,
      "($": 3914,
      "ĠST": 3915,
      "Ġclaims": 3916,
      "ãģ®": 3917,
      "ĠPresident": 3918,
      "ĠMarch": 3919,
      "augh": 3920,
      "Ġ[*": 3921,
      "urg": 3922,
      "Ġcommand": 3923,
      "Ġstage": 3924,
      "Ġ60": 3925,
      "Ġdro": 3926,
      "aries": 3927,
      "ĠCounty": 3928,
      "Ġarticle": 3929,
      "âĢĥ": 3930,
      "isms": 3931,
      "ĠSince": 3932,
      "Ġaccur": 3933,
      "osure": 3934,
      "Ġmessage": 3935,
      "Ġtakes": 3936,
      "mega": 3937,
      "unk": 3938,
      "Ġactive": 3939,
      "Ġcand": 3940,
      "oul": 3941,
      "vey": 3942,
      "Ġunit": 3943,
      "Ġhttp": 3944,
      "term": 3945,
      "Ġpractice": 3946,
      "Ġcompet": 3947,
      "Ġengine": 3948,
      "Ġvict": 3949,
      "ental": 3950,
      "^[@": 3951,
      "Ïģ": 3952,
      "94": 3953,
      "ĠNow": 3954,
      "Î¼": 3955,
      "top": 3956,
      "hest": 3957,
      "Ġgames": 3958,
      "Ġoffer": 3959,
      "Ġaltern": 3960,
      "Ġband": 3961,
      "Ġperfect": 3962,
      "Ġregular": 3963,
      "ham": 3964,
      "Ġpretty": 3965,
      "Ġetc": 3966,
      "path": 3967,
      "ĠAmerica": 3968,
      "Ġcorresponding": 3969,
      "Ġdynam": 3970,
      "Ġroad": 3971,
      "ĠHar": 3972,
      "ĠFirst": 3973,
      "ĠÃ©": 3974,
      "ĠArt": 3975,
      "ĠChar": 3976,
      "Ġled": 3977,
      "ĠJune": 3978,
      "BC": 3979,
      "Or": 3980,
      "Ġsaying": 3981,
      "Ġbrought": 3982,
      "eah": 3983,
      "Ġspeak": 3984,
      "length": 3985,
      "Ġreach": 3986,
      "ming": 3987,
      "Ġsecurity": 3988,
      "Ġconstruct": 3989,
      "ĠĊĠĠĠĠĠĠĠĠĠĠĠĠĠĠĠ": 3990,
      "Ġappropri": 3991,
      "cell": 3992,
      "atives": 3993,
      "Ġens": 3994,
      "ĠHouse": 3995,
      "Ed": 3996,
      "Ġfeed": 3997,
      "Ġbrain": 3998,
      "deed": 3999,
      "Ġrot": 4000,
      "undred": 4001,
      "ille": 4002,
      "erve": 4003,
      "lation": 4004,
      "ĠSept": 4005,
      "bon": 4006,
      "Ġpresident": 4007,
      "cast": 4008,
      "ĠVal": 4009,
      ")=": 4010,
      "ran": 4011,
      "atform": 4012,
      "Oh": 4013,
      "Ġtele": 4014,
      "Le": 4015,
      "Ġnegative": 4016,
      "Ġprotect": 4017,
      "}}$": 4018,
      "za": 4019,
      "Ġapproxim": 4020,
      "Ġdouble": 4021,
      "Ġ2016": 4022,
      "Ġball": 4023,
      "inate": 4024,
      "pret": 4025,
      "arning": 4026,
      "));": 4027,
      "Ġwriting": 4028,
      "pan": 4029,
      "Ġfine": 4030,
      "ĠId": 4031,
      "supp": 4032,
      "ĠBar": 4033,
      "omen": 4034,
      "Ġcontinue": 4035,
      "Ġord": 4036,
      "UN": 4037,
      "Ġdensity": 4038,
      "cho": 4039,
      "ethyl": 4040,
      "One": 4041,
      "Ġantib": 4042,
      "ournal": 4043,
      "Ġobtain": 4044,
      "Do": 4045,
      "attle": 4046,
      "ĠJapan": 4047,
      "orph": 4048,
      "Ġcam": 4049,
      "Ġ2012": 4050,
      "ĠGl": 4051,
      "aling": 4052,
      "vention": 4053,
      "Ġult": 4054,
      "Ġcenter": 4055,
      "Ġstreng": 4056,
      "ĠÃł": 4057,
      "ĠHer": 4058,
      "Ġ2014": 4059,
      "Ġtitle": 4060,
      "SC": 4061,
      "Ġtradition": 4062,
      "urb": 4063,
      "from": 4064,
      "call": 4065,
      "pat": 4066,
      "Ġlarger": 4067,
      "ibrary": 4068,
      "itter": 4069,
      "Ġhon": 4070,
      "ayer": 4071,
      "Ġ2013": 4072,
      "Ġstress": 4073,
      "ufact": 4074,
      "Ġenh": 4075,
      "Ġclean": 4076,
      "Ġarr": 4077,
      "ociety": 4078,
      "uge": 4079,
      "Ġmeasured": 4080,
      "Ġproposed": 4081,
      "ĠCir": 4082,
      "Ġfinanc": 4083,
      "uild": 4084,
      "eful": 4085,
      "Ġrule": 4086,
      "ously": 4087,
      "Ġways": 4088,
      "Ġhear": 4089,
      "max": 4090,
      "yond": 4091,
      "Ġserious": 4092,
      "sing": 4093,
      "estern": 4094,
      "Ġdevices": 4095,
      "Ġpurpose": 4096,
      "ĠAP": 4097,
      "Ġgrant": 4098,
      "rench": 4099,
      "gorith": 4100,
      "Ġhydro": 4101,
      "Ġrecently": 4102,
      "Ġrelative": 4103,
      "Ġ2015": 4104,
      "Ġpoor": 4105,
      "efore": 4106,
      "Ġfre": 4107,
      "enty": 4108,
      "Ġter": 4109,
      "ĠIS": 4110,
      "ĠPhys": 4111,
      "Ġsituation": 4112,
      "ui": 4113,
      "Ġbackground": 4114,
      "eline": 4115,
      "Ġattention": 4116,
      ",'": 4117,
      "###": 4118,
      "ĊĠĠĠĠĠĠĠĠĠĠĠĠĠĠĠĠĠĠĠĠĠĠĠ": 4119,
      "Mod": 4120,
      "ocks": 4121,
      "Ġhighly": 4122,
      "la": 4123,
      "ports": 4124,
      "Now": 4125,
      "aign": 4126,
      "Ġtreated": 4127,
      "irect": 4128,
      "ĠAlthough": 4129,
      "Ġeveryone": 4130,
      "Ġmorning": 4131,
      "ML": 4132,
      "Ġliter": 4133,
      "ÏĢ": 4134,
      "ĠChina": 4135,
      "Ġallowed": 4136,
      "ĠSu": 4137,
      "Ġassert": 4138,
      "ervice": 4139,
      "Suppose": 4140,
      "Ñĭ": 4141,
      "Ġrates": 4142,
      "Ġvisit": 4143,
      "psi": 4144,
      "ĠOR": 4145,
      "ĠSun": 4146,
      "Ġpurch": 4147,
      "97": 4148,
      "version": 4149,
      "ĠâĪĴ": 4150,
      "Ġinform": 4151,
      "band": 4152,
      "Omega": 4153,
      "Ġargument": 4154,
      "ĠSystem": 4155,
      "Ġglobal": 4156,
      "spec": 4157,
      "Ġdesigned": 4158,
      "Ġwrote": 4159,
      "non": 4160,
      "GF": 4161,
      "ĠApril": 4162,
      "ĠJuly": 4163,
      "Ġil": 4164,
      "ĠSer": 4165,
      "Ġoil": 4166,
      "ellant": 4167,
      "change": 4168,
      "ÑĮ": 4169,
      "aily": 4170,
      "Ġacqu": 4171,
      "Ġri": 4172,
      "ico": 4173,
      "fn": 4174,
      "mar": 4175,
      "Ġsuit": 4176,
      "Ġstar": 4177,
      "Ġresid": 4178,
      "Ġcharge": 4179,
      "Ġprofess": 4180,
      "Ġdistance": 4181,
      "omy": 4182,
      "Ð²": 4183,
      "Ġintern": 4184,
      "98": 4185,
      "Ġisol": 4186,
      "ulate": 4187,
      "Ġphen": 4188,
      "ĠÑģ": 4189,
      "reme": 4190,
      "Ġbeaut": 4191,
      "Ġcapac": 4192,
      "bi": 4193,
      "Ġrow": 4194,
      "Ġfa": 4195,
      "96": 4196,
      "Ġproduced": 4197,
      "Ġprop": 4198,
      "ondon": 4199,
      "ĠMon": 4200,
      "Ġbirth": 4201,
      "coming": 4202,
      "}=": 4203,
      "Ġda": 4204,
      "Ġmount": 4205,
      "iled": 4206,
      "\\].": 4207,
      "itness": 4208,
      "Ġsufficient": 4209,
      "hors": 4210,
      "Ġsold": 4211,
      "Ġusers": 4212,
      "lo": 4213,
      "ĠGeneral": 4214,
      "iated": 4215,
      "Ġgraph": 4216,
      "Ġuseful": 4217,
      "Cal": 4218,
      "izes": 4219,
      "Gamma": 4220,
      "Par": 4221,
      "Ġarch": 4222,
      "ĠAugust": 4223,
      "mpt": 4224,
      "oted": 4225,
      "00000000": 4226,
      "Ġinstance": 4227,
      "Ġstatic": 4228,
      "Ġfixed": 4229,
      "Ġhar": 4230,
      "Ġmag": 4231,
      "Ġestablished": 4232,
      "gy": 4233,
      "acing": 4234,
      "ĠSw": 4235,
      "Ġselected": 4236,
      "EX": 4237,
      "was": 4238,
      "pid": 4239,
      "Ġ2017": 4240,
      "Object": 4241,
      "Ġfailed": 4242,
      "Ġparts": 4243,
      ")$,": 4244,
      "Ġgives": 4245,
      "cember": 4246,
      "ĠJanuary": 4247,
      "Ġdegree": 4248,
      "ership": 4249,
      "Ġheat": 4250,
      "map": 4251,
      "obile": 4252,
      "){#": 4253,
      "Ġoperation": 4254,
      "ĠWest": 4255,
      "čĊĠ": 4256,
      "New": 4257,
      "Ġsomet": 4258,
      "epsilon": 4259,
      "Ġmid": 4260,
      "iring": 4261,
      "Ġproceed": 4262,
      "oring": 4263,
      "Ġenjoy": 4264,
      "Äĥ": 4265,
      "Ġmyself": 4266,
      "Ġ2010": 4267,
      "ĠJud": 4268,
      "Ġcaused": 4269,
      "Ġbuilt": 4270,
      "Ġidentify": 4271,
      "Ġdivided": 4272,
      "Ġbal": 4273,
      "Ġdeb": 4274,
      "Ġcentral": 4275,
      "ĠAp": 4276,
      "psilon": 4277,
      "Ġdetails": 4278,
      "Ġsecret": 4279,
      "CA": 4280,
      "ĠDem": 4281,
      "Ġwonder": 4282,
      "Ġleading": 4283,
      "Ġdefault": 4284,
      "Ġmer": 4285,
      "abase": 4286,
      "rightarrow": 4287,
      "Ġtravel": 4288,
      "Ġhundred": 4289,
      "OW": 4290,
      "inct": 4291,
      "Ġindividuals": 4292,
      "Ġimm": 4293,
      "Ġfrequency": 4294,
      "Ġcomponents": 4295,
      "Ġsurpr": 4296,
      "gu": 4297,
      "Ġexperien": 4298,
      "Ġ[**": 4299,
      "Ġannoun": 4300,
      "ovember": 4301,
      "Ġtechnology": 4302,
      "entially": 4303,
      "known": 4304,
      "js": 4305,
      "ancy": 4306,
      "Ġworked": 4307,
      "Ġstim": 4308,
      "Ġderivative": 4309,
      "Ġbank": 4310,
      "Ġscale": 4311,
      "Text": 4312,
      "Ġratio": 4313,
      "Ġeight": 4314,
      "Ġmatrix": 4315,
      "Sc": 4316,
      "ees": 4317,
      "Ġvoice": 4318,
      "argin": 4319,
      "Ġlegal": 4320,
      "Ġearlier": 4321,
      "Ġthreat": 4322,
      "Ġmanagement": 4323,
      "Ġproteins": 4324,
      "ĠFrom": 4325,
      "Ġsubstant": 4326,
      "Ġchoice": 4327,
      "Ġlocation": 4328,
      "Ġlat": 4329,
      "ener": 4330,
      "Ġpen": 4331,
      "Ġ2011": 4332,
      "ĠĠĠĠĠĠĠĠĠĠĠĠĠĠĠĠĠĠĠ": 4333,
      "vare": 4334,
      "Ġprime": 4335,
      "Ġcompletely": 4336,
      "zed": 4337,
      "ube": 4338,
      "CE": 4339,
      "ãĢĤ": 4340,
      "ocation": 4341,
      "Ġfindings": 4342,
      "Ġcountries": 4343,
      "Ġfair": 4344,
      "Ġagreement": 4345,
      "unction": 4346,
      "exp": 4347,
      "lock": 4348,
      "athe": 4349,
      "SP": 4350,
      "king": 4351,
      "Ġhit": 4352,
      "void": 4353,
      "Ġeasily": 4354,
      "ida": 4355,
      "ĠĠĠĠĠĠĠĠĠĠĠĠĠĠĠĠĠ": 4356,
      "/>": 4357,
      "Ġlas": 4358,
      "Ġclust": 4359,
      "ibly": 4360,
      "Ġreading": 4361,
      "orem": 4362,
      "wide": 4363,
      "iency": 4364,
      "Ġswe": 4365,
      "Ġnotice": 4366,
      "Ġfiles": 4367,
      "ocol": 4368,
      "Ġpsych": 4369,
      "Ġdog": 4370,
      "fort": 4371,
      "Ġ----------------": 4372,
      "Ġhyper": 4373,
      "Yes": 4374,
      "Ġsites": 4375,
      "Ġprice": 4376,
      "ĠKing": 4377,
      "ĠMich": 4378,
      "ford": 4379,
      "ights": 4380,
      "Ġneigh": 4381,
      "Ġcomputer": 4382,
      "ĠEnglish": 4383,
      "Ġweb": 4384,
      "Ġcomment": 4385,
      "ĠOb": 4386,
      "public": 4387,
      "Ġaim": 4388,
      "Ġsaf": 4389,
      "Ġcurrently": 4390,
      "Ġchanged": 4391,
      "ĠTH": 4392,
      "semb": 4393,
      "Ġones": 4394,
      "Ġmoved": 4395,
      "zz": 4396,
      "ĠSeptember": 4397,
      "Ġ\\<": 4398,
      "group": 4399,
      "Ġfederal": 4400,
      "Ġmanufact": 4401,
      "operator": 4402,
      "plit": 4403,
      "Ġtowards": 4404,
      "urt": 4405,
      "Ġemerg": 4406,
      "ĠÐ²": 4407,
      "Ġtissue": 4408,
      "Ġworth": 4409,
      "ĠRed": 4410,
      "aur": 4411,
      "ĠDistrict": 4412,
      "Ġcompanies": 4413,
      "_.": 4414,
      "elle": 4415,
      "ĠFeb": 4416,
      "Ġcook": 4417,
      "ĠÐ½": 4418,
      "Ġrequires": 4419,
      "ares": 4420,
      "cap": 4421,
      "Ġwebsite": 4422,
      "orage": 4423,
      "ffer": 4424,
      "Ġdecided": 4425,
      "Ġqual": 4426,
      "rate": 4427,
      "Ġcontains": 4428,
      "Ġthous": 4429,
      "Ġarm": 4430,
      "itions": 4431,
      "Ġrecept": 4432,
      "Ġfailure": 4433,
      "ouble": 4434,
      "Ñĩ": 4435,
      "Ġsche": 4436,
      "ĠOctober": 4437,
      "Ġmode": 4438,
      "Ġreleased": 4439,
      "Ġimag": 4440,
      "Ġlocated": 4441,
      "oding": 4442,
      "Ġemb": 4443,
      "Ġplant": 4444,
      "Ġcomponent": 4445,
      "Ġdrive": 4446,
      "Ġformed": 4447,
      "ris": 4448,
      "BS": 4449,
      "Ġboard": 4450,
      "Ġunique": 4451,
      "ifically": 4452,
      "Ġlooks": 4453,
      "Ġnames": 4454,
      "Ġseemed": 4455,
      "Ġremember": 4456,
      "Ġbeyond": 4457,
      "ĠInt": 4458,
      "Ġcarry": 4459,
      "Ġnovel": 4460,
      "room": 4461,
      "unn": 4462,
      "cil": 4463,
      "((": 4464,
      "Ġextra": 4465,
      "Ġculture": 4466,
      "ÙĦ": 4467,
      "Ġconcern": 4468,
      "Ġexpressed": 4469,
      "Ġinn": 4470,
      "Ġmulti": 4471,
      "ĠStud": 4472,
      "Ġconcept": 4473,
      "Ġpor": 4474,
      "Ġwife": 4475,
      "Des": 4476,
      "Ġauthors": 4477,
      "init": 4478,
      "\\'": 4479,
      "ĠTrans": 4480,
      "Ġphone": 4481,
      "bb": 4482,
      "Ġallows": 4483,
      "Ġcool": 4484,
      "------": 4485,
      "older": 4486,
      "ĠDepartment": 4487,
      "opl": 4488,
      "Ġbuy": 4489,
      "TT": 4490,
      "Ġindustry": 4491,
      "link": 4492,
      "Ġcircum": 4493,
      "Ġdescript": 4494,
      "Ġmeaning": 4495,
      "Ġplease": 4496,
      "Well": 4497,
      "Ġsong": 4498,
      "Ġcontrast": 4499,
      "Ġoption": 4500,
      "iÃ³n": 4501,
      "Ġtumor": 4502,
      "Ġequal": 4503,
      "irmed": 4504,
      "File": 4505,
      "Ġexerc": 4506,
      "active": 4507,
      "Ġcontaining": 4508,
      "From": 4509,
      "Ġprefer": 4510,
      "pace": 4511,
      "Ġslight": 4512,
      "iate": 4513,
      "Ġcommit": 4514,
      "wards": 4515,
      "Ġsupported": 4516,
      "Ġtrust": 4517,
      "Ġclearly": 4518,
      "varepsilon": 4519,
      "Ġnumer": 4520,
      "othes": 4521,
      "Ġtim": 4522,
      "ULL": 4523,
      "under": 4524,
      "uted": 4525,
      "^+": 4526,
      "Of": 4527,
      "dim": 4528,
      "92": 4529,
      "ka": 4530,
      "Set": 4531,
      "tee": 4532,
      "Ġroll": 4533,
      "vis": 4534,
      "varphi": 4535,
      "Ġsometimes": 4536,
      "user": 4537,
      "Sec": 4538,
      "uns": 4539,
      "Ġdiscl": 4540,
      "Ġquickly": 4541,
      "asm": 4542,
      "Ġnor": 4543,
      "Ġcampaign": 4544,
      "Ġadvant": 4545,
      "Ġplayed": 4546,
      "osite": 4547,
      "MP": 4548,
      "Ġappeal": 4549,
      "odies": 4550,
      "aught": 4551,
      "iful": 4552,
      "After": 4553,
      "Ġcyt": 4554,
      "Ġexactly": 4555,
      "*.": 4556,
      "quest": 4557,
      "Ġremains": 4558,
      "ĠMod": 4559,
      "Ġfinding": 4560,
      "Ġgenerated": 4561,
      "Ġ31": 4562,
      "ĠCons": 4563,
      "Ġcouple": 4564,
      "ĠDecember": 4565,
      "Ġgoes": 4566,
      "Ġ32": 4567,
      "ĠRec": 4568,
      "Ġappropriate": 4569,
      "perty": 4570,
      "Ġcouldn": 4571,
      "Ġinterview": 4572,
      "untu": 4573,
      "overn": 4574,
      "Ġadjust": 4575,
      "SA": 4576,
      "Ġsmaller": 4577,
      "================================": 4578,
      "Ġemail": 4579,
      "irt": 4580,
      "Ġclosed": 4581,
      "Ġarriv": 4582,
      "Ġoverall": 4583,
      "aker": 4584,
      "Ġhighest": 4585,
      "rier": 4586,
      ")-": 4587,
      "Ġactual": 4588,
      "Ġax": 4589,
      "93": 4590,
      "ĠJe": 4591,
      "Ġhappened": 4592,
      "Ġeffic": 4593,
      "ĠAfric": 4594,
      "ara": 4595,
      "ĠNovember": 4596,
      "ĠDet": 4597,
      "../../": 4598,
      "iforn": 4599,
      "Ġsleep": 4600,
      "encies": 4601,
      "Ġconnection": 4602,
      "bum": 4603,
      "Fr": 4604,
      "ĠString": 4605,
      "Ġreasons": 4606,
      "Ġrelig": 4607,
      "hand": 4608,
      "which": 4609,
      "Ġoptions": 4610,
      "ato": 4611,
      "Def": 4612,
      "Ġcandid": 4613,
      "rad": 4614,
      "\\,": 4615,
      "Ġtransport": 4616,
      "Ġimpos": 4617,
      "Ġwide": 4618,
      "Ġcritical": 4619,
      "Ġappears": 4620,
      "irit": 4621,
      "*]{}": 4622,
      "Ġrelevant": 4623,
      "iques": 4624,
      "EC": 4625,
      "anged": 4626,
      "Ġupp": 4627,
      "urance": 4628,
      "kay": 4629,
      "Ġstru": 4630,
      "ais": 4631,
      "Ġvs": 4632,
      "Ġpopular": 4633,
      "overy": 4634,
      "chi": 4635,
      "ample": 4636,
      "ĠLicense": 4637,
      "rum": 4638,
      "FL": 4639,
      "Ġelectro": 4640,
      "UL": 4641,
      "vec": 4642,
      "ĠĠĠĠĠĠĠĠĠĠĠĠĠĠĠĠĠĠ": 4643,
      "Ġvolume": 4644,
      "Ġshowing": 4645,
      "Ġmedium": 4646,
      "Ġapply": 4647,
      "Ġuses": 4648,
      "Ġalgorith": 4649,
      "round": 4650,
      "Ġparents": 4651,
      "orge": 4652,
      "ĠPR": 4653,
      "ĠÎ¼": 4654,
      "lick": 4655,
      "Ġrestrict": 4656,
      "Ġstore": 4657,
      "lib": 4658,
      "static": 4659,
      "Ġstation": 4660,
      "ĠChe": 4661,
      "rick": 4662,
      "index": 4663,
      "ashington": 4664,
      "Ġinterpret": 4665,
      "Ġnode": 4666,
      "Ġpair": 4667,
      "Ġmilitary": 4668,
      "Ġfeet": 4669,
      "iers": 4670,
      "icip": 4671,
      "!!": 4672,
      "ĠSen": 4673,
      "section": 4674,
      "Ġhospital": 4675,
      "Ġparties": 4676,
      "Ġfigure": 4677,
      "Be": 4678,
      "Ġexperiments": 4679,
      "Ġthinking": 4680,
      ".[": 4681,
      "Ġmur": 4682,
      "ĠOf": 4683,
      "Ġconnect": 4684,
      "Ġunderstanding": 4685,
      "cluded": 4686,
      "ĠRepublic": 4687,
      "Ġfat": 4688,
      "}_{\\": 4689,
      "rael": 4690,
      "Ġmal": 4691,
      "ano": 4692,
      "ĠLondon": 4693,
      "vision": 4694,
      "Ġ2008": 4695,
      "ael": 4696,
      "board": 4697,
      "mark": 4698,
      "002": 4699,
      ".$$": 4700,
      "ruary": 4701,
      "Ġformation": 4702,
      "enge": 4703,
      "Ġready": 4704,
      "iday": 4705,
      "Ġsec": 4706,
      "Ġhair": 4707,
      "RT": 4708,
      "Ġfear": 4709,
      "Ġthrow": 4710,
      "Ġproduce": 4711,
      "Ġactivities": 4712,
      "\\<": 4713,
      "well": 4714,
      "Ġlearning": 4715,
      "ĠHol": 4716,
      "Add": 4717,
      "};": 4718,
      "Ġconcentration": 4719,
      "Ġfinally": 4720,
      "istry": 4721,
      "Ġinteresting": 4722,
      "Ġdamage": 4723,
      "Ġfiled": 4724,
      "Ġ/>": 4725,
      "ĠSchool": 4726,
      "Supp": 4727,
      "Ġsubsequ": 4728,
      "ifornia": 4729,
      "Ġeducation": 4730,
      "ĠCong": 4731,
      "Ġvirt": 4732,
      "ÏĤ": 4733,
      "Ġpul": 4734,
      "Ġfeature": 4735,
      "Ġgoal": 4736,
      "Ġproof": 4737,
      "======": 4738,
      "91": 4739,
      "aste": 4740,
      "OV": 4741,
      "ky": 4742,
      "Ġopinion": 4743,
      "ĠMark": 4744,
      "Ġimmediately": 4745,
      "ãĢģ": 4746,
      "Ġchalleng": 4747,
      "Ġ2009": 4748,
      "Sim": 4749,
      "Ġstaff": 4750,
      "Ġfully": 4751,
      "cos": 4752,
      "Ġmaterials": 4753,
      "Ġyes": 4754,
      "Ġobvious": 4755,
      "Error": 4756,
      "Ġstrength": 4757,
      "Ġsetting": 4758,
      "Ġgreen": 4759,
      "Ġplayer": 4760,
      "ersion": 4761,
      "rep": 4762,
      "Ġreceive": 4763,
      "Ġparameter": 4764,
      "Ġ2018": 4765,
      "Ġmiddle": 4766,
      "Ġstated": 4767,
      "Ġthroughout": 4768,
      "Time": 4769,
      "Ġuint": 4770,
      "Ġserver": 4771,
      "Ġ__": 4772,
      "ptr": 4773,
      "force": 4774,
      "ĠHealth": 4775,
      "Ġhab": 4776,
      "stances": 4777,
      "Ġvariable": 4778,
      "Man": 4779,
      "Ġprogress": 4780,
      "alle": 4781,
      "ĠBritish": 4782,
      "Ġgone": 4783,
      "Ġmit": 4784,
      "PP": 4785,
      "fo": 4786,
      "otes": 4787,
      "adem": 4788,
      "py": 4789,
      "ymbol": 4790,
      "Ġ35": 4791,
      "stance": 4792,
      "base": 4793,
      "ĠAccording": 4794,
      "Ġresulting": 4795,
      "Ġreduce": 4796,
      "Ġblue": 4797,
      "ĠAustral": 4798,
      "}^{\\": 4799,
      ")^": 4800,
      "orney": 4801,
      "Ġconnected": 4802,
      "Ġrules": 4803,
      "Ġmeeting": 4804,
      "bin": 4805,
      "Ġsto": 4806,
      "Int": 4807,
      "Ġskin": 4808,
      "Ġaspect": 4809,
      "ĠWilli": 4810,
      "Ġregions": 4811,
      "Ġinternal": 4812,
      "Ġexhib": 4813,
      "Key": 4814,
      "Ġcosts": 4815,
      "Ġ($": 4816,
      "Ġpassed": 4817,
      "pol": 4818,
      "ĠBro": 4819,
      "operatorname": 4820,
      "Ġcontinued": 4821,
      "Ġcollect": 4822,
      "Ġconsequ": 4823,
      "Ġcarried": 4824,
      "ĠEm": 4825,
      "style": 4826,
      "TER": 4827,
      "Ġcounter": 4828,
      "Ġnearly": 4829,
      "Ġonto": 4830,
      "Ġdemand": 4831,
      "Ġfinancial": 4832,
      "Ġinfluence": 4833,
      "Ġyourself": 4834,
      "item": 4835,
      "Ġtask": 4836,
      "iling": 4837,
      "003": 4838,
      "Ġchance": 4839,
      "Ġmess": 4840,
      "langle": 4841,
      "*-": 4842,
      "asc": 4843,
      "atever": 4844,
      "Ġplaced": 4845,
      ")**": 4846,
      "Ġabsol": 4847,
      "Ġrob": 4848,
      "Ġcollection": 4849,
      "Ġgets": 4850,
      "Ġcit": 4851,
      "Ġlives": 4852,
      "Ġdefine": 4853,
      "Ġhearing": 4854,
      "ĠHigh": 4855,
      "msg": 4856,
      "Ġletter": 4857,
      "Ġseparate": 4858,
      "Ġlinks": 4859,
      "Ġindicated": 4860,
      "ded": 4861,
      "overline": 4862,
      "oses": 4863,
      "Ġbrief": 4864,
      "Ġbinding": 4865,
      "Ġmovement": 4866,
      "ĠTw": 4867,
      "Ġscore": 4868,
      "Ġmaximum": 4869,
      "Ġprocesses": 4870,
      "Ġwidth": 4871,
      "Ġlinear": 4872,
      "RI": 4873,
      "Ġliqu": 4874,
      "oat": 4875,
      "Ġletters": 4876,
      "DA": 4877,
      "ĠMus": 4878,
      "Ġnoted": 4879,
      ".\\": 4880,
      "oto": 4881,
      "Ġplaying": 4882,
      "NS": 4883,
      "Ġreaction": 4884,
      "arest": 4885,
      "Ġmoving": 4886,
      "Ġreflect": 4887,
      "čĊč": 4888,
      "ĠAND": 4889,
      "Ġ\"\"": 4890,
      "Ġsolid": 4891,
      "Ġtour": 4892,
      "Ġapplications": 4893,
      "omb": 4894,
      "Ġreturned": 4895,
      "works": 4896,
      "color": 4897,
      "Ġheight": 4898,
      "PA": 4899,
      "Ġign": 4900,
      "Ġenter": 4901,
      "ooth": 4902,
      "Ġvariables": 4903,
      "pa": 4904,
      "itro": 4905,
      "pling": 4906,
      "Ġnamed": 4907,
      "Ġextract": 4908,
      "font": 4909,
      "Ġfields": 4910,
      "pective": 4911,
      "Ġmedic": 4912,
      "ĠPark": 4913,
      "asis": 4914,
      "ĠAT": 4915,
      "Ġbecomes": 4916,
      "Ġyield": 4917,
      "Ġtherapy": 4918,
      "related": 4919,
      "Ġmort": 4920,
      "omas": 4921,
      "ĠMor": 4922,
      "ĠBecause": 4923,
      "free": 4924,
      "Ġreached": 4925,
      "roy": 4926,
      "Ġsi": 4927,
      "ĠĊĠ": 4928,
      "Ġbrother": 4929,
      "asion": 4930,
      "Ġperhaps": 4931,
      "^{(": 4932,
      "Ġgiving": 4933,
      "Ġkept": 4934,
      "}}(": 4935,
      "Ġgrand": 4936,
      "Ġsympt": 4937,
      "asp": 4938,
      "cules": 4939,
      "inger": 4940,
      "References": 4941,
      "Ġrelatively": 4942,
      "Here": 4943,
      "Ġfit": 4944,
      "ĊĠĠĠĠĠĠĠĠĠĠĠĠĠ": 4945,
      "bra": 4946,
      "Class": 4947,
      "Ġforms": 4948,
      "hold": 4949,
      "Ġrevealed": 4950,
      "Ġstraight": 4951,
      "ĠEven": 4952,
      "atur": 4953,
      "ĠØ": 4954,
      "Ġorg": 4955,
      "Ġwild": 4956,
      "Ġitems": 4957,
      "Ġvehicle": 4958,
      "Ġandroid": 4959,
      "iform": 4960,
      "Ġexists": 4961,
      "Ġdied": 4962,
      "stream": 4963,
      "Ġhour": 4964,
      "ĠAng": 4965,
      "ATE": 4966,
      "Why": 4967,
      "Ġtool": 4968,
      "Ġinstit": 4969,
      "Ġscient": 4970,
      "grad": 4971,
      "Ġvector": 4972,
      "Ġsources": 4973,
      "ĠSub": 4974,
      "Ġinjury": 4975,
      "DR": 4976,
      "othe": 4977,
      "berg": 4978,
      "Ġtransform": 4979,
      "Ġmodern": 4980,
      "Ġutil": 4981,
      "\"},": 4982,
      "Ġstarting": 4983,
      "Ġjury": 4984,
      "OO": 4985,
      "omic": 4986,
      "Ġhous": 4987,
      "amin": 4988,
      "df": 4989,
      "material": 4990,
      "rant": 4991,
      "Î·": 4992,
      "Ġfix": 4993,
      "erved": 4994,
      "utive": 4995,
      "Ġintr": 4996,
      "func": 4997,
      "oman": 4998,
      "Ġsafe": 4999,
      "}}_": 5000,
      "Ġregarding": 5001,
      "ĠCalifornia": 5002,
      "ĠSan": 5003,
      "Ġbottom": 5004,
      "cles": 5005,
      "Ġboy": 5006,
      "Ġsend": 5007,
      "Ġconvention": 5008,
      "atin": 5009,
      "Ġotherwise": 5010,
      "otion": 5011,
      "Ġreports": 5012,
      "['": 5013,
      "Ġparticipants": 5014,
      "Ġtalking": 5015,
      "Ġinteraction": 5016,
      "Ġstuff": 5017,
      "Ġsteps": 5018,
      "Ġcombination": 5019,
      "Ġmajority": 5020,
      "ella": 5021,
      "Ãĥ": 5022,
      "().": 5023,
      "Ġedge": 5024,
      "len": 5025,
      "Ġthick": 5026,
      "Ġcontribut": 5027,
      "Ġdomain": 5028,
      ")).": 5029,
      "Ġpow": 5030,
      "ÑģÑĤ": 5031,
      "Ġ]": 5032,
      "icit": 5033,
      "erate": 5034,
      "See": 5035,
      "ech": 5036,
      "ĠDon": 5037,
      "ayout": 5038,
      "Ab": 5039,
      "cons": 5040,
      "ĠWashington": 5041,
      "Ġ^": 5042,
      "Ġplus": 5043,
      "Ġbasic": 5044,
      "case": 5045,
      "Ġmaybe": 5046,
      "rend": 5047,
      "Ġchannel": 5048,
      "Ġcircuit": 5049,
      "Ġincor": 5050,
      "urity": 5051,
      "Ġresistance": 5052,
      "Ġplaces": 5053,
      "Ġeconomic": 5054,
      "Ġpicked": 5055,
      "long": 5056,
      "ĠGet": 5057,
      "Ġzero": 5058,
      "grams": 5059,
      "enses": 5060,
      "Ġuns": 5061,
      "Ġ~": 5062,
      "abled": 5063,
      ">>": 5064,
      "Comp": 5065,
      "Ġinfection": 5066,
      "Ġcounsel": 5067,
      "Ġbeginning": 5068,
      "Ã©s": 5069,
      "place": 5070,
      "////////": 5071,
      "Me": 5072,
      "fil": 5073,
      "Ġanimals": 5074,
      "Ġweak": 5075,
      "ĠMoreover": 5076,
      "PC": 5077,
      "Ġconcentr": 5078,
      "Ġcivil": 5079,
      "ĠFebruary": 5080,
      "Ġ(\\": 5081,
      "Ġwouldn": 5082,
      "Ġtruth": 5083,
      "Ġcolumn": 5084,
      "Ġunits": 5085,
      "Ġmale": 5086,
      "Ġpaid": 5087,
      "True": 5088,
      "Test": 5089,
      "geq": 5090,
      "Ġ90": 5091,
      "can": 5092,
      "Ġseven": 5093,
      "Ġ(**": 5094,
      "Ġ\\,": 5095,
      "Ġ80": 5096,
      "oken": 5097,
      "Ġbooks": 5098,
      "Ġjur": 5099,
      "Ġestablish": 5100,
      "Ġsun": 5101,
      "ady": 5102,
      "Ġshot": 5103,
      "iny": 5104,
      "Ġeth": 5105,
      "ĠUSA": 5106,
      "Ġopportunity": 5107,
      "Ġhappen": 5108,
      "itors": 5109,
      "Ġportion": 5110,
      "Ġum": 5111,
      "ĠFrench": 5112,
      "Ġobjects": 5113,
      "sis": 5114,
      "Ġachieve": 5115,
      "ename": 5116,
      "Ïħ": 5117,
      "Ġcalculated": 5118,
      "ĠDavid": 5119,
      "onic": 5120,
      "ĠĠĠĠĠĠĠĠĠĠĠĠĠĠĠĠĠĠĠĠ": 5121,
      "Ġmechanism": 5122,
      "uses": 5123,
      "Ġphosph": 5124,
      "Ġsuggested": 5125,
      "ÐµÐ½": 5126,
      "Ġanalys": 5127,
      "ĠData": 5128,
      "Ð´": 5129,
      "Ġeye": 5130,
      "ĠOther": 5131,
      "Ġsynthe": 5132,
      "Ġmanner": 5133,
      "ny": 5134,
      "Ġlib": 5135,
      ":\"": 5136,
      "');": 5137,
      "çļ": 5138,
      "Ġje": 5139,
      "Ġconstruction": 5140,
      "Ġreduction": 5141,
      "tem": 5142,
      "ĠIsrael": 5143,
      "ĠĠĠĠĠĠĠĠĠĠĠĠĠĠĠĠĠĠĠĠĠ": 5144,
      "Ġmachine": 5145,
      "######": 5146,
      "Ġplatform": 5147,
      "Ġmetal": 5148,
      "Ġwave": 5149,
      "Ġequation": 5150,
      "ãģĦ": 5151,
      "Ġbul": 5152,
      "Ġhistor": 5153,
      "agon": 5154,
      "iance": 5155,
      "ocket": 5156,
      "stitute": 5157,
      "gery": 5158,
      "Ġkill": 5159,
      "Ð¼": 5160,
      "Ġcore": 5161,
      "Ġprocessing": 5162,
      "orry": 5163,
      "Ġfunctional": 5164,
      "Ġapparent": 5165,
      "CS": 5166,
      "Ġsusp": 5167,
      "di": 5168,
      "eria": 5169,
      "Ġupper": 5170,
      "ĠPaul": 5171,
      "Ġwa": 5172,
      "je": 5173,
      "otype": 5174,
      "Ġtesting": 5175,
      "Ġremoved": 5176,
      "Ġcomplic": 5177,
      "Big": 5178,
      "arter": 5179,
      "[^": 5180,
      "Ġtouch": 5181,
      "ria": 5182,
      "Ġdemonstrated": 5183,
      "Ġhop": 5184,
      "Ġconsistent": 5185,
      "ÃĲ": 5186,
      "inese": 5187,
      "Ġlab": 5188,
      "Ġdetected": 5189,
      "``": 5190,
      "ingu": 5191,
      "ĠAc": 5192,
      "Ġvill": 5193,
      "Ġagree": 5194,
      "Ġspread": 5195,
      "Ġconducted": 5196,
      "ĠCenter": 5197,
      "Ġmetab": 5198,
      "Ġprocedure": 5199,
      "ls": 5200,
      "ĠDis": 5201,
      "Ġtree": 5202,
      "Ġlabel": 5203,
      "Ġ->": 5204,
      "Ġneut": 5205,
      "Ġchoose": 5206,
      "Ġwhom": 5207,
      "ĠAM": 5208,
      "gar": 5209,
      "nes": 5210,
      "Ġhappy": 5211,
      "Ġmagnetic": 5212,
      "Ġinternational": 5213,
      "RA": 5214,
      "Ġ2007": 5215,
      "Ġtests": 5216,
      "Ġequival": 5217,
      "]:": 5218,
      "ĠWhite": 5219,
      "ĠAlso": 5220,
      "ocyt": 5221,
      "Ġnorm": 5222,
      "Ġadapt": 5223,
      "Ġindicate": 5224,
      "çļĦ": 5225,
      "ĠPal": 5226,
      "Ġstatist": 5227,
      "zym": 5228,
      "Ct": 5229,
      "Ġroot": 5230,
      "Ġactions": 5231,
      "Form": 5232,
      "Ġrapid": 5233,
      "Ġswitch": 5234,
      "Ġvariety": 5235,
      "IA": 5236,
      "Ġharm": 5237,
      "ĠSection": 5238,
      "Ġsets": 5239,
      "omin": 5240,
      "Ġpeak": 5241,
      "aly": 5242,
      "Ġlif": 5243,
      "aughter": 5244,
      "Ġcoord": 5245,
      "xy": 5246,
      "lam": 5247,
      "Ġcast": 5248,
      "Ġcareer": 5249,
      "aching": 5250,
      "level": 5251,
      "Ġsafety": 5252,
      "Ġglass": 5253,
      "Ġfloor": 5254,
      "ĠTex": 5255,
      "dot": 5256,
      "Ġtend": 5257,
      "Ġunc": 5258,
      "ĠPublic": 5259,
      "xx": 5260,
      "Ġwid": 5261,
      "Ġspent": 5262,
      "Ġarrest": 5263,
      "\"><": 5264,
      "ipp": 5265,
      "Ġpetition": 5266,
      "dr": 5267,
      "Ġclient": 5268,
      "Ġtal": 5269,
      "ĠTable": 5270,
      "ĠAut": 5271,
      "Ġreasonable": 5272,
      "sembly": 5273,
      "ĠIL": 5274,
      "Ġnearest": 5275,
      "Ġprove": 5276,
      "Ġproviding": 5277,
      "frak": 5278,
      "Over": 5279,
      "abil": 5280,
      "Ġshape": 5281,
      "zen": 5282,
      "Ġadopt": 5283,
      "ĠEuropean": 5284,
      "ctors": 5285,
      "Ġadministration": 5286,
      "Ġmembr": 5287,
      "ME": 5288,
      "Ġstructures": 5289,
      "\\],": 5290,
      "Ġ<<": 5291,
      "rey": 5292,
      "Ġnone": 5293,
      "%,": 5294,
      "':": 5295,
      "Ġnil": 5296,
      "ci": 5297,
      "tes": 5298,
      "Ġlabor": 5299,
      "Ġresources": 5300,
      "Ġcomparison": 5301,
      "using": 5302,
      "Ġsen": 5303,
      "Ġvisual": 5304,
      "CP": 5305,
      "Ġcert": 5306,
      "Ġ2000": 5307,
      "wood": 5308,
      "jo": 5309,
      "Ġshoot": 5310,
      "Ġblog": 5311,
      "Ġdaily": 5312,
      "Ġpiece": 5313,
      "rely": 5314,
      "Ġmac": 5315,
      "cher": 5316,
      "ĠFigure": 5317,
      "onent": 5318,
      "Ġcharacteristics": 5319,
      "Ġextrem": 5320,
      "Ġsave": 5321,
      "Ġnice": 5322,
      "Ġlaws": 5323,
      "HT": 5324,
      "Ġ95": 5325,
      "Ġremov": 5326,
      "ellig": 5327,
      "Ġgold": 5328,
      "Ġ45": 5329,
      "Exception": 5330,
      "Ġcentury": 5331,
      "ĠJack": 5332,
      "Ġshift": 5333,
      "Ġcompr": 5334,
      "raint": 5335,
      "olved": 5336,
      "ustr": 5337,
      "inner": 5338,
      "Ġkilled": 5339,
      "Ġplate": 5340,
      "oting": 5341,
      "jection": 5342,
      "Ġfemale": 5343,
      "pected": 5344,
      "Ġ37": 5345,
      "Î²": 5346,
      "Ġcapital": 5347,
      "ilies": 5348,
      "Ġ);": 5349,
      "Ġcapacity": 5350,
      "ails": 5351,
      "Ġfresh": 5352,
      "aud": 5353,
      "ensions": 5354,
      "*(": 5355,
      "ingly": 5356,
      "ĠNet": 5357,
      "ensure": 5358,
      "otal": 5359,
      "ĠArm": 5360,
      "ding": 5361,
      "Ġscen": 5362,
      "ship": 5363,
      "ĠDemocr": 5364,
      "ĠPM": 5365,
      "Ġbab": 5366,
      "po": 5367,
      "Ġexisting": 5368,
      "Ġunf": 5369,
      "Ġpanel": 5370,
      "what": 5371,
      "atically": 5372,
      "Ġbenefits": 5373,
      "info": 5374,
      "abs": 5375,
      "ĠInst": 5376,
      "FA": 5377,
      "pir": 5378,
      "stitution": 5379,
      "oute": 5380,
      "Ġwat": 5381,
      "Ġitem": 5382,
      "ĠInter": 5383,
      "Ġmist": 5384,
      "Ġcru": 5385,
      "Ġremove": 5386,
      "Ġdut": 5387,
      "500": 5388,
      "Ġbeautiful": 5389,
      "Ġsubstr": 5390,
      "ini": 5391,
      "wid": 5392,
      "Ġmentioned": 5393,
      "idden": 5394,
      "rices": 5395,
      "ĠIndian": 5396,
      "config": 5397,
      "Ġprem": 5398,
      "ĠCommission": 5399,
      "Ġalbum": 5400,
      "arth": 5401,
      "ĠYour": 5402,
      "Ġ2006": 5403,
      "lict": 5404,
      "ĠLaw": 5405,
      "Ġpicture": 5406,
      "Ġreplacement": 5407,
      "Ġdiss": 5408,
      "uman": 5409,
      "vest": 5410,
      "ifying": 5411,
      "Ġcold": 5412,
      "]\\],": 5413,
      "PD": 5414,
      "Ġcontinuous": 5415,
      "Ġensure": 5416,
      "ĠID": 5417,
      "ĠBlack": 5418,
      "Ġpun": 5419,
      "Ġappeared": 5420,
      "Ġstudied": 5421,
      "ensional": 5422,
      "input": 5423,
      "Ġhus": 5424,
      "ifier": 5425,
      "Ġdefinition": 5426,
      "ĠIndia": 5427,
      "TE": 5428,
      "ĊĊĊĊ": 5429,
      "how": 5430,
      "Ġtypically": 5431,
      "itz": 5432,
      "Ġregul": 5433,
      "Ġdanger": 5434,
      "Ġcrim": 5435,
      "apping": 5436,
      "Ãª": 5437,
      "Ġselection": 5438,
      "Ġraised": 5439,
      "Ġcop": 5440,
      "Ġfacts": 5441,
      "anned": 5442,
      "State": 5443,
      "ãģ«": 5444,
      "Ġexposure": 5445,
      "ĠAD": 5446,
      "Ġdatabase": 5447,
      "Ġwind": 5448,
      "flow": 5449,
      "rome": 5450,
      "Ġburn": 5451,
      "čĊĠĠĠĠĠĠĠ": 5452,
      "Ġclub": 5453,
      "Ġtrade": 5454,
      "Path": 5455,
      "[]": 5456,
      "Ġampl": 5457,
      "osen": 5458,
      "Ġincreases": 5459,
      "Ġsevere": 5460,
      "Ġtherm": 5461,
      "sey": 5462,
      "ilos": 5463,
      "ette": 5464,
      "host": 5465,
      "ĠSec": 5466,
      "Ġassume": 5467,
      "acters": 5468,
      "Ġdiscussed": 5469,
      "db": 5470,
      "Ġfeeling": 5471,
      "IB": 5472,
      "='": 5473,
      "Ġdoc": 5474,
      "Item": 5475,
      "Ġguess": 5476,
      "ago": 5477,
      "start": 5478,
      "ESS": 5479,
      "Ġprepared": 5480,
      "Ġdetection": 5481,
      "Ġsolutions": 5482,
      "endant": 5483,
      "Ġdrink": 5484,
      "Ġopened": 5485,
      "Ġmeant": 5486,
      "Ġvictim": 5487,
      "ĠFurthermore": 5488,
      "ĠResearch": 5489,
      "ĠJames": 5490,
      "iced": 5491,
      "Ġrace": 5492,
      "ston": 5493,
      "äº": 5494,
      "ipe": 5495,
      "Size": 5496,
      "Ġmo": 5497,
      "Don": 5498,
      "Ġmill": 5499,
      "Ġcup": 5500,
      "conne": 5501,
      "Ġtransition": 5502,
      "ota": 5503,
      "uced": 5504,
      "ĠAssoci": 5505,
      "Ġresponsible": 5506,
      "Ã¦": 5507,
      "Ġspin": 5508,
      "indows": 5509,
      "Ġlaug": 5510,
      "Ġcommunication": 5511,
      "Ġapproximately": 5512,
      "Ġexplain": 5513,
      "Ġded": 5514,
      "ĠRober": 5515,
      "ĠHam": 5516,
      "Ġwitness": 5517,
      "FT": 5518,
      "icks": 5519,
      "Ġimproved": 5520,
      "orter": 5521,
      "Ġpackage": 5522,
      "005": 5523,
      "Ġbud": 5524,
      "004": 5525,
      "rical": 5526,
      "ruit": 5527,
      "cor": 5528,
      "UM": 5529,
      "soft": 5530,
      "ĠOh": 5531,
      "Ġclick": 5532,
      "Ġbond": 5533,
      "Ġwood": 5534,
      "Ġupd": 5535,
      "Ġheavy": 5536,
      "encing": 5537,
      "igation": 5538,
      "ensuremath": 5539,
      "Ġ36": 5540,
      "Ġlip": 5541,
      "Ġstream": 5542,
      "AND": 5543,
      "Ġexplained": 5544,
      "Ġdoubt": 5545,
      "car": 5546,
      "Ġsuccessful": 5547,
      "},\\": 5548,
      "Ġna": 5549,
      "Ġ(\"": 5550,
      "produ": 5551,
      "ĠList": 5552,
      "Ġradio": 5553,
      "?'": 5554,
      "osing": 5555,
      "Ġoptim": 5556,
      "Ġrout": 5557,
      "Ġliquid": 5558,
      "ĠGoogle": 5559,
      "count": 5560,
      "Ġrock": 5561,
      "ÂłÂłÂłÂł": 5562,
      "Ġmig": 5563,
      "title": 5564,
      "Ġbacter": 5565,
      "ĠOff": 5566,
      "istant": 5567,
      "ban": 5568,
      "Ġlock": 5569,
      "Ġagent": 5570,
      "Ġ70": 5571,
      "Ġoperator": 5572,
      "Ġoccup": 5573,
      "circ": 5574,
      "Ġalleged": 5575,
      "ographic": 5576,
      "mathfrak": 5577,
      "ĠPC": 5578,
      "ĠTV": 5579,
      "Ġsell": 5580,
      "php": 5581,
      "han": 5582,
      "Ġrecommend": 5583,
      "/(-": 5584,
      "agement": 5585,
      "Ġpara": 5586,
      "ĠSpec": 5587,
      "Ä±": 5588,
      "ldots": 5589,
      "hal": 5590,
      "ĠUK": 5591,
      "Ġcommerc": 5592,
      "Ġmeasures": 5593,
      "java": 5594,
      "ĠMost": 5595,
      "appa": 5596,
      "Ġdismiss": 5597,
      "parent": 5598,
      "Ġguy": 5599,
      "Ġtransl": 5600,
      "Ġprepar": 5601,
      "ĠMac": 5602,
      "Ġpark": 5603,
      "Ġcertainly": 5604,
      "Ġwants": 5605,
      "Ġevolution": 5606,
      "EE": 5607,
      "Ġserved": 5608,
      "Ġtechniques": 5609,
      "anging": 5610,
      "Ġintroduced": 5611,
      "ĠRich": 5612,
      "ĠÏĦ": 5613,
      "asma": 5614,
      "Ġsexual": 5615,
      "lem": 5616,
      "Äģ": 5617,
      "';": 5618,
      "ĠSy": 5619,
      "cin": 5620,
      "Ġforces": 5621,
      "Bl": 5622,
      "Sub": 5623,
      "/(": 5624,
      "ĠInternational": 5625,
      "ALL": 5626,
      "*)": 5627,
      "ĠChinese": 5628,
      "ario": 5629,
      "ride": 5630,
      "ĠGovern": 5631,
      "imony": 5632,
      "ĠJer": 5633,
      "Ġlegis": 5634,
      "ĠEv": 5635,
      "Ġconvers": 5636,
      "Ġelectric": 5637,
      "........": 5638,
      "Ġforeign": 5639,
      "ĠĠĠĠĠĠĠĠĠĠĠĠĠĠĠĠĠĠĠĠĠĠĠ": 5640,
      "space": 5641,
      "ĠCH": 5642,
      "tre": 5643,
      "Ġleads": 5644,
      "Ġexpand": 5645,
      "ubuntu": 5646,
      "\"/>": 5647,
      "SH": 5648,
      "Ġbenefit": 5649,
      "ura": 5650,
      "rian": 5651,
      "ferent": 5652,
      "False": 5653,
      "Ġgun": 5654,
      "bolds": 5655,
      "ANT": 5656,
      "Ġtools": 5657,
      "you": 5658,
      "Ġprograms": 5659,
      "icial": 5660,
      "Ġexperimental": 5661,
      "Ġolder": 5662,
      "Ġbelong": 5663,
      "boldsymbol": 5664,
      "Ġsurround": 5665,
      "enced": 5666,
      "Ġessential": 5667,
      "nb": 5668,
      "Ġinsert": 5669,
      "ascular": 5670,
      "itect": 5671,
      "true": 5672,
      "Ġinterface": 5673,
      "Ġnation": 5674,
      "Ġgrowing": 5675,
      "Îº": 5676,
      "Out": 5677,
      "Ġcombined": 5678,
      "ĠJew": 5679,
      "Ġborder": 5680,
      "going": 5681,
      "ĠDan": 5682,
      "Up": 5683,
      "Ġdefense": 5684,
      "ĠGerman": 5685,
      "Ġborn": 5686,
      "ĠPress": 5687,
      "lication": 5688,
      "ĠRE": 5689,
      "ä»": 5690,
      "Ġchallenge": 5691,
      "rient": 5692,
      "Ġ48": 5693,
      "Ġmotor": 5694,
      "image": 5695,
      "LA": 5696,
      "Ġideas": 5697,
      "Ġvent": 5698,
      "Ġhuge": 5699,
      "Ġstrategy": 5700,
      "Ġcomments": 5701,
      "Ġprofessional": 5702,
      "Read": 5703,
      "etry": 5704,
      "Ġsubjects": 5705,
      "ĠAtt": 5706,
      "CON": 5707,
      "Ġkin": 5708,
      "[\\": 5709,
      "idem": 5710,
      "vo": 5711,
      "ĠRel": 5712,
      "Ġfib": 5713,
      "itivity": 5714,
      "(),": 5715,
      "({\\": 5716,
      "Ġthank": 5717,
      "Ġstorage": 5718,
      "mail": 5719,
      "ĠStreet": 5720,
      "ĠFe": 5721,
      "Ġaward": 5722,
      "Ġneur": 5723,
      "Ġmonitor": 5724,
      "orrow": 5725,
      "pers": 5726,
      "Ġwhereas": 5727,
      "Ġcollected": 5728,
      "ĠPre": 5729,
      "Ġwish": 5730,
      "Ġupdate": 5731,
      "urrent": 5732,
      "ĠAdd": 5733,
      "Ġunless": 5734,
      "idel": 5735,
      "PT": 5736,
      "**)": 5737,
      "ua": 5738,
      "Ġstock": 5739,
      "Ġdescription": 5740,
      "ita": 5741,
      "Ġspecifically": 5742,
      "Ġactivation": 5743,
      "raz": 5744,
      "Ġsav": 5745,
      "arant": 5746,
      "Ġdespite": 5747,
      "Ġoptical": 5748,
      "Ġ\"[": 5749,
      "Ġadvantage": 5750,
      "kt": 5751,
      "Ġserve": 5752,
      "Ġkids": 5753,
      "Ġprison": 5754,
      "icity": 5755,
      "chen": 5756,
      "ART": 5757,
      "open": 5758,
      "ĠCongress": 5759,
      "Ġcontrols": 5760,
      "ĠTwo": 5761,
      "Ġtested": 5762,
      "Ġexercise": 5763,
      "Lambda": 5764,
      "Ġvert": 5765,
      "Ġempt": 5766,
      "ĠMiss": 5767,
      "Ġsummer": 5768,
      "ĠSam": 5769,
      "Ġmg": 5770,
      "ĠRNA": 5771,
      "Ġkid": 5772,
      "ulf": 5773,
      ".](": 5774,
      "othing": 5775,
      "Î»": 5776,
      "Ġslightly": 5777,
      "Ġdelay": 5778,
      "ĠPost": 5779,
      "Ġremaining": 5780,
      "aa": 5781,
      "Ġproport": 5782,
      "Ġconfirmed": 5783,
      "rd": 5784,
      "Reg": 5785,
      "otimes": 5786,
      "Ġmolecular": 5787,
      "Ġsurvival": 5788,
      ")/(-": 5789,
      "Ð¾Ð²": 5790,
      "ĠEast": 5791,
      "lt": 5792,
      "Ġchemical": 5793,
      "ĠMart": 5794,
      "Ġalternative": 5795,
      "Ġpal": 5796,
      "eds": 5797,
      "Ġcat": 5798,
      "Ġdistinct": 5799,
      "isd": 5800,
      "hi": 5801,
      "Ġinduced": 5802,
      "ĠNOT": 5803,
      "Can": 5804,
      "ipment": 5805,
      "Ġfilter": 5806,
      "Ġsch": 5807,
      "ĠĠĠĠĠĠĠĠĠĠĠĠĠĠĠĠĠĠĠĠĠĠ": 5808,
      "Ġvac": 5809,
      "Ġcharacters": 5810,
      "ows": 5811,
      "ĠNULL": 5812,
      "Ġfif": 5813,
      "ĊĊĠĠĠĠĠ": 5814,
      "ĠEach": 5815,
      "Ġmissing": 5816,
      "âĢ¢": 5817,
      "Ġring": 5818,
      "ĠCirc": 5819,
      "Ġworkers": 5820,
      "Ġagreed": 5821,
      "ĠÐ¸": 5822,
      "Ġmm": 5823,
      "SI": 5824,
      "Ġnut": 5825,
      "Ġ2005": 5826,
      "Ġplans": 5827,
      "Ġvel": 5828,
      "osc": 5829,
      "ba": 5830,
      "0001": 5831,
      "ãĤĭ": 5832,
      "Ġcomplaint": 5833,
      "Ġcatch": 5834,
      "Ġdrugs": 5835,
      "ĠCON": 5836,
      "isation": 5837,
      "ĠNote": 5838,
      "Ġinvestigation": 5839,
      "kg": 5840,
      "Ġcalls": 5841,
      "Ġfootball": 5842,
      "Ùħ": 5843,
      "bm": 5844,
      "uing": 5845,
      "ÙĨ": 5846,
      "Ġpros": 5847,
      "ql": 5848,
      "asure": 5849,
      "Calculate": 5850,
      "AV": 5851,
      "iders": 5852,
      "Ġtechnique": 5853,
      "ĠEngland": 5854,
      "Ġweap": 5855,
      "Context": 5856,
      "Ġentry": 5857,
      "pass": 5858,
      "Ġscience": 5859,
      "onna": 5860,
      "Ġrecords": 5861,
      "Ġabsor": 5862,
      "ĠUp": 5863,
      "Ġassociation": 5864,
      "Ġdigital": 5865,
      "Ġoccurred": 5866,
      "Ġanalyzed": 5867,
      "Ġdenied": 5868,
      "Ġsurgery": 5869,
      "Ġfamilies": 5870,
      "Ġoperations": 5871,
      "Then": 5872,
      "dden": 5873,
      "ĠWil": 5874,
      "Ġhealthy": 5875,
      "Ġaffected": 5876,
      "Ġholding": 5877,
      "Ġmix": 5878,
      "ĉĉĉĉ": 5879,
      "Ġcycle": 5880,
      "edom": 5881,
      "Ġfirm": 5882,
      "CM": 5883,
      "Ġminor": 5884,
      "Ġrul": 5885,
      "Ġrelation": 5886,
      "ĠSup": 5887,
      "Ġencour": 5888,
      "Ġcomposition": 5889,
      "Ġwarm": 5890,
      "ãģĹ": 5891,
      "Exp": 5892,
      "Ġanimal": 5893,
      "zon": 5894,
      "itis": 5895,
      "riage": 5896,
      "Ġtempor": 5897,
      "ĠÎ±": 5898,
      "Ġtraditional": 5899,
      "Ġcardi": 5900,
      "ĠGroup": 5901,
      "pc": 5902,
      "check": 5903,
      "izations": 5904,
      "coh": 5905,
      "actor": 5906,
      "Ġoffered": 5907,
      "Ġofficer": 5908,
      "Ġopening": 5909,
      "Ġ34": 5910,
      "elled": 5911,
      "Ġprobability": 5912,
      "Ġwhatever": 5913,
      "kin": 5914,
      "CO": 5915,
      "arp": 5916,
      "Ġsymptoms": 5917,
      "Ġgal": 5918,
      "Ġefficient": 5919,
      "Ġfrag": 5920,
      "Ġcorrelation": 5921,
      "Ġ33": 5922,
      "Ġinstr": 5923,
      "itled": 5924,
      "fected": 5925,
      "Ġdrop": 5926,
      "Ġminimum": 5927,
      "Ġabsence": 5928,
      ".*": 5929,
      "ignment": 5930,
      "Ġchain": 5931,
      "}}{": 5932,
      "Ġalgorithm": 5933,
      "istory": 5934,
      "ĠTO": 5935,
      "Ġsuggests": 5936,
      "Ġchrom": 5937,
      "Ġhusband": 5938,
      "Ġdistributed": 5939,
      "Ġuna": 5940,
      "åı": 5941,
      "DS": 5942,
      "gs": 5943,
      "Ġcorpor": 5944,
      "ander": 5945,
      "iat": 5946,
      "Ġcir": 5947,
      "Ġsociety": 5948,
      "Event": 5949,
      "Ġrecorded": 5950,
      "Ġtrig": 5951,
      "ĠFound": 5952,
      "inity": 5953,
      "antly": 5954,
      "Ġdiscussion": 5955,
      "Ġcomfort": 5956,
      "resents": 5957,
      "Ġrank": 5958,
      "æľ": 5959,
      "}-": 5960,
      "Ġbone": 5961,
      "Ġbiggest": 5962,
      "Ġjudge": 5963,
      "PO": 5964,
      "Ġhol": 5965,
      "Ġentered": 5966,
      "house": 5967,
      "Ġspirit": 5968,
      "rich": 5969,
      "ologies": 5970,
      "Ġclasses": 5971,
      "Ġherself": 5972,
      "ya": 5973,
      "Ġstudent": 5974,
      "Ġconver": 5975,
      "Ġ42": 5976,
      "&\\": 5977,
      "Ġgeneration": 5978,
      "ĠMal": 5979,
      "ĠĠĠĠĠĠĠĠĠĠĠĠĠĠĠĠĠĠĠĠĠĠĠĠĠĠĠĠĠĠĠĠĠĠĠĠĠĠĠĠĠĠĠĠĠĠĠĠĠĠĠĠĠĠĠĠ": 5980,
      "Ġformat": 5981,
      "Ġsudden": 5982,
      "'.": 5983,
      "allel": 5984,
      "ki": 5985,
      "ĠBoard": 5986,
      "Ġhttps": 5987,
      "Ġbreast": 5988,
      "Ġcircumstances": 5989,
      "GL": 5990,
      "Ãł": 5991,
      "det": 5992,
      "BL": 5993,
      "prime": 5994,
      "Ġsymb": 5995,
      "post": 5996,
      "Ġcauses": 5997,
      "Ġestimated": 5998,
      "Ġsitu": 5999,
      "ĠEvery": 6000,
      "Ġscript": 6001,
      "oz": 6002,
      "Ġorganization": 6003,
      "ĠTest": 6004,
      "Ġfra": 6005,
      "^âĪĴ": 6006,
      "Ġbill": 6007,
      "Ġeat": 6008,
      "Ġfaith": 6009,
      "Ġsummary": 6010,
      "ymph": 6011,
      "Ġderived": 6012,
      "poses": 6013,
      "Act": 6014,
      "Ġrepeated": 6015,
      "Ġhandle": 6016,
      "sem": 6017,
      "ĠKe": 6018,
      ".**": 6019,
      "());": 6020,
      "Ġincome": 6021,
      "ĠBank": 6022,
      "ĠSupp": 6023,
      "Ġexternal": 6024,
      "alysis": 6025,
      "Ġbow": 6026,
      "ÃĹ": 6027,
      "UE": 6028,
      "ĠBen": 6029,
      "uffer": 6030,
      "Ġefforts": 6031,
      "Ġsmooth": 6032,
      "thon": 6033,
      "Ġintended": 6034,
      "ione": 6035,
      "Ġjoint": 6036,
      "ĠAir": 6037,
      "']": 6038,
      "ĠCam": 6039,
      "subset": 6040,
      "Ġconventional": 6041,
      "otyp": 6042,
      "ĠPlaintiff": 6043,
      "Ġvolt": 6044,
      "ror": 6045,
      "Ġnoise": 6046,
      "ĠCa": 6047,
      "Ġ((": 6048,
      "ĠWhy": 6049,
      "while": 6050,
      "iable": 6051,
      "Per": 6052,
      "ĠSuper": 6053,
      "Ġrise": 6054,
      "Ġprotection": 6055,
      "lands": 6056,
      "Ġknows": 6057,
      "gin": 6058,
      "umin": 6059,
      "Index": 6060,
      "ĠOver": 6061,
      "olar": 6062,
      "Ġcryst": 6063,
      "Ġresolution": 6064,
      "Phi": 6065,
      "ĊĊĠĠĠĠĠĠĠĠĠĠĠ": 6066,
      "Our": 6067,
      "Ġguys": 6068,
      "Ġnuclear": 6069,
      "Ġextent": 6070,
      "content": 6071,
      "Cs": 6072,
      "ivo": 6073,
      "Info": 6074,
      "Ser": 6075,
      "Ġcele": 6076,
      "illa": 6077,
      "ĠÅ": 6078,
      "Ġdry": 6079,
      "Some": 6080,
      "izer": 6081,
      "object": 6082,
      "Ġagents": 6083,
      "cknow": 6084,
      "Ġenzym": 6085,
      "ĠGeorge": 6086,
      "\\|": 6087,
      "ãģ¨": 6088,
      "ĠWell": 6089,
      "esis": 6090,
      "sf": 6091,
      "}}}": 6092,
      "ushed": 6093,
      "Ġbehavi": 6094,
      "Ġrequirements": 6095,
      "Ġshared": 6096,
      "âĢ²": 6097,
      ":**": 6098,
      "ĠÐ¾": 6099,
      "ĠLou": 6100,
      "ĠAny": 6101,
      "ĠSuch": 6102,
      "Ġstrugg": 6103,
      "Sp": 6104,
      "Ġchurch": 6105,
      "ivery": 6106,
      "Ġcovered": 6107,
      "Ġleaving": 6108,
      "Ġmobile": 6109,
      "Ġinterested": 6110,
      "irty": 6111,
      "ĠTexas": 6112,
      "cs": 6113,
      "Ġstars": 6114,
      "ĠGreen": 6115,
      "Rec": 6116,
      "ERS": 6117,
      "ners": 6118,
      "Ġkit": 6119,
      "Ġdiagnosis": 6120,
      "burg": 6121,
      "Ġdaughter": 6122,
      "à¥": 6123,
      "Code": 6124,
      "Ġrepresents": 6125,
      "Ġstre": 6126,
      "Ġpatterns": 6127,
      "Ġresponses": 6128,
      "ĠDi": 6129,
      "greg": 6130,
      "Ġoffers": 6131,
      "Ġelection": 6132,
      "ilit": 6133,
      "eless": 6134,
      "Ġdoll": 6135,
      "isted": 6136,
      "Ġdecreased": 6137,
      "Ġannounced": 6138,
      "Ġimplic": 6139,
      "Pr": 6140,
      "Ġ///": 6141,
      "Ġreb": 6142,
      "apers": 6143,
      "ĠCanada": 6144,
      "acebook": 6145,
      "Ġnorth": 6146,
      "yr": 6147,
      "van": 6148,
      "Ġearth": 6149,
      "Ġsea": 6150,
      "rees": 6151,
      "Ġcredit": 6152,
      "Ġcreating": 6153,
      "------------------------------------------------": 6154,
      "Config": 6155,
      "va": 6156,
      "Ġ2004": 6157,
      "Ġlatter": 6158,
      "BI": 6159,
      "specific": 6160,
      "Ġcoe": 6161,
      "ĠPort": 6162,
      "cks": 6163,
      "Ġanc": 6164,
      "kappa": 6165,
      "ĠUnder": 6166,
      "Ġregist": 6167,
      "het": 6168,
      "ville": 6169,
      "night": 6170,
      "Ġemployees": 6171,
      "block": 6172,
      "terest": 6173,
      "Ġarms": 6174,
      "While": 6175,
      "ĠGermany": 6176,
      ")?": 6177,
      "Ġdose": 6178,
      "Ġwaiting": 6179,
      "Field": 6180,
      "ĠFrance": 6181,
      "rape": 6182,
      "Ġmanif": 6183,
      "Ġdownload": 6184,
      "mic": 6185,
      "Ġsupply": 6186,
      "Ãº": 6187,
      "oom": 6188,
      "Trans": 6189,
      "mbox": 6190,
      "Ġmes": 6191,
      "ĠIll": 6192,
      "ĠBer": 6193,
      "Ġtrain": 6194,
      "Ġlit": 6195,
      "Ġdiet": 6196,
      "Ġsentence": 6197,
      "phone": 6198,
      "Sigma": 6199,
      "Ġscene": 6200,
      "ĠSur": 6201,
      "ĠDE": 6202,
      "ĠLord": 6203,
      "look": 6204,
      "ÑĤÐ¾": 6205,
      "Ġtestimony": 6206,
      "Ġcrow": 6207,
      "Ġmouth": 6208,
      "sens": 6209,
      "Ġwel": 6210,
      "Ġcitiz": 6211,
      "ĠSmith": 6212,
      "ometry": 6213,
      "etes": 6214,
      "Ġship": 6215,
      "pled": 6216,
      "GR": 6217,
      "ãģŁ": 6218,
      "node": 6219,
      "Ġincorpor": 6220,
      "Ġcontained": 6221,
      "Ġprofile": 6222,
      "~~~": 6223,
      "Ġsales": 6224,
      "Ġstood": 6225,
      "cel": 6226,
      "ilde": 6227,
      "inder": 6228,
      "MT": 6229,
      "ras": 6230,
      "iant": 6231,
      "ansion": 6232,
      "Ġearn": 6233,
      "Â»": 6234,
      "ĠRem": 6235,
      "ulin": 6236,
      "Ġsuff": 6237,
      "ï¼Į": 6238,
      "Ġliterature": 6239,
      "Ġadding": 6240,
      "ilarly": 6241,
      "Ġexistence": 6242,
      "appe": 6243,
      "Ġplants": 6244,
      "ameter": 6245,
      "ĠCR": 6246,
      "Ġ2019": 6247,
      "Ġsymm": 6248,
      "Ġsust": 6249,
      "âĢĬ": 6250,
      "Ġofficers": 6251,
      "Ġteac": 6252,
      "Ġlargest": 6253,
      "Ġdriver": 6254,
      "Ġmental": 6255,
      "Â·": 6256,
      "**]{},": 6257,
      "ĠDay": 6258,
      "current": 6259,
      "Ġanalyses": 6260,
      "ãģ¦": 6261,
      "Ġesc": 6262,
      "_{{\\": 6263,
      "Ġcommercial": 6264,
      "Ġauthority": 6265,
      "Ġdescribe": 6266,
      "''": 6267,
      "Ġstd": 6268,
      "ĠCommun": 6269,
      "ĠTom": 6270,
      "Ġ--------": 6271,
      "ĠAre": 6272,
      "Ġvote": 6273,
      "nonumber": 6274,
      "last": 6275,
      "Ġdriving": 6276,
      "ĠMichael": 6277,
      "Ġsquare": 6278,
      "ĠYes": 6279,
      "Ġà¤": 6280,
      "Ġstories": 6281,
      "ĠOut": 6282,
      "Ġproperly": 6283,
      "Ġinterests": 6284,
      "hr": 6285,
      "sible": 6286,
      "Ġloop": 6287,
      "Hand": 6288,
      "Ġreferred": 6289,
      "Ġbes": 6290,
      "bert": 6291,
      "nam": 6292,
      "Ġthread": 6293,
      "Ġshut": 6294,
      "ĠBoth": 6295,
      "Ġindeed": 6296,
      "Ġmechanisms": 6297,
      "Ġsignals": 6298,
      "Ġconcentrations": 6299,
      "Just": 6300,
      "frame": 6301,
      "\":\"": 6302,
      "Ġmaster": 6303,
      "ĠDel": 6304,
      "Ġfol": 6305,
      "Ġstanding": 6306,
      "ĠCode": 6307,
      "Ġspot": 6308,
      "just": 6309,
      "Ġcatal": 6310,
      "Ġlearned": 6311,
      "Ġcompleted": 6312,
      "Ġpure": 6313,
      "Ġepis": 6314,
      "Ġcarbon": 6315,
      "stract": 6316,
      "ĠNews": 6317,
      "Ġquantum": 6318,
      "ÂŃ": 6319,
      "normal": 6320,
      "run": 6321,
      "Ġtransmission": 6322,
      "Ġlatest": 6323,
      "range": 6324,
      "Ġempty": 6325,
      "Ġsupposed": 6326,
      "BA": 6327,
      "YS": 6328,
      "MO": 6329,
      "Ġpeace": 6330,
      "Ġstopped": 6331,
      "Ġerrors": 6332,
      "Ġmodule": 6333,
      ".[@": 6334,
      "Ġlibrary": 6335,
      "ÃŃa": 6336,
      "Ġran": 6337,
      "Ġofficials": 6338,
      "stein": 6339,
      "uate": 6340,
      "Ġmeasurements": 6341,
      "front": 6342,
      "write": 6343,
      "ãģ§": 6344,
      "Ġbreath": 6345,
      "Ġneighbor": 6346,
      "ĠSecond": 6347,
      "abla": 6348,
      "Ġimportance": 6349,
      "QL": 6350,
      "Ġgain": 6351,
      "olf": 6352,
      "Ġparticles": 6353,
      "ĠEq": 6354,
      "Ġinteractions": 6355,
      "ih": 6356,
      "ca": 6357,
      "ias": 6358,
      "ĠWestern": 6359,
      "outhern": 6360,
      "opic": 6361,
      "ja": 6362,
      "Ġpool": 6363,
      "ears": 6364,
      "ĠMet": 6365,
      "ERT": 6366,
      "induced": 6367,
      "edy": 6368,
      "NT": 6369,
      "num": 6370,
      "Ġwire": 6371,
      "ptions": 6372,
      "Ġapprec": 6373,
      "Ġelim": 6374,
      "rog": 6375,
      "Ġremained": 6376,
      "page": 6377,
      "Ġpurposes": 6378,
      "Ġdecrease": 6379,
      "Ġgenetic": 6380,
      "Ġinsp": 6381,
      "Ġpolic": 6382,
      "Ġcustomers": 6383,
      "Ġmembrane": 6384,
      "Ġmir": 6385,
      "Ġahead": 6386,
      "Ġpossibility": 6387,
      "Ġinvolve": 6388,
      "Ġfarm": 6389,
      "ipped": 6390,
      "Ġbuffer": 6391,
      "ĠCO": 6392,
      "ĠMary": 6393,
      "{{": 6394,
      "(&": 6395,
      "Ġjurisd": 6396,
      "ĠMat": 6397,
      "ĠUnion": 6398,
      "Ġnan": 6399,
      "Ġlung": 6400,
      "Ġ/**": 6401,
      "MI": 6402,
      "Ġaren": 6403,
      "amily": 6404,
      "Ġconserv": 6405,
      "Ġstreet": 6406,
      "First": 6407,
      "ĠDuring": 6408,
      "Ġbutton": 6409,
      "ariant": 6410,
      "Ġappar": 6411,
      "ĠChurch": 6412,
      "ĠSupreme": 6413,
      "Ġremainder": 6414,
      "Ġplane": 6415,
      "ĠChristian": 6416,
      "roller": 6417,
      "ãģ¯": 6418,
      "ishes": 6419,
      "Ġsouth": 6420,
      "dy": 6421,
      "Ġpowerful": 6422,
      "Ġdirector": 6423,
      "Ġcriminal": 6424,
      "Ġequivalent": 6425,
      "ker": 6426,
      "Ġattract": 6427,
      "==========": 6428,
      "Ġma": 6429,
      "Ġsequences": 6430,
      "Ġexchange": 6431,
      "Pe": 6432,
      "icians": 6433,
      "url": 6434,
      "GG": 6435,
      "However": 6436,
      "Ġreceptor": 6437,
      "after": 6438,
      "ĠTechn": 6439,
      "Ġmovie": 6440,
      "mem": 6441,
      "ĠPD": 6442,
      "core": 6443,
      "Ġarbit": 6444,
      "ĠJes": 6445,
      "Ġing": 6446,
      "Ġuniform": 6447,
      "born": 6448,
      "ãĤĴ": 6449,
      "Î¯": 6450,
      "ani": 6451,
      "Ġconclusion": 6452,
      "RS": 6453,
      "Ġoutcome": 6454,
      "Ġconvert": 6455,
      "ĠCouncil": 6456,
      "Ã¢": 6457,
      "lif": 6458,
      "Ġgreatest": 6459,
      "iveness": 6460,
      "onday": 6461,
      "oyal": 6462,
      "ÙĬ": 6463,
      "ora": 6464,
      "uries": 6465,
      "cence": 6466,
      "ĠÐº": 6467,
      "Ġhaven": 6468,
      "Ġ2003": 6469,
      "ĠSal": 6470,
      "rect": 6471,
      "aming": 6472,
      "aneous": 6473,
      "Ġstable": 6474,
      "ader": 6475,
      "\\!": 6476,
      "ructions": 6477,
      "Ġelev": 6478,
      "Ġbrow": 6479,
      "Ġ38": 6480,
      "win": 6481,
      "Ġhypothes": 6482,
      "Ġcas": 6483,
      "antic": 6484,
      "Ġexpert": 6485,
      "Ġfinite": 6486,
      "ĠCompany": 6487,
      "Ġelectron": 6488,
      "Ġidentity": 6489,
      "ĠIII": 6490,
      "ĠPeople": 6491,
      "Ġindicates": 6492,
      "Ġprojects": 6493,
      "Ġbillion": 6494,
      "ĠGreat": 6495,
      "Americ": 6496,
      "Ġfell": 6497,
      "Ġoperating": 6498,
      "jected": 6499,
      "Ġequipment": 6500,
      "Ġgonna": 6501,
      "Ġenem": 6502,
      "Ġinsurance": 6503,
      "Inter": 6504,
      "Ġleaves": 6505,
      "Yeah": 6506,
      "Ġflat": 6507,
      "Ġextended": 6508,
      "Ġcateg": 6509,
      "Ġorigin": 6510,
      "faces": 6511,
      "ĠBel": 6512,
      "Ġbra": 6513,
      "Ġfluid": 6514,
      "ĠStat": 6515,
      "ĠInstitute": 6516,
      "Ġexception": 6517,
      "Ġhelped": 6518,
      "Ġspeech": 6519,
      "Ġflex": 6520,
      "Ġmouse": 6521,
      "Ġ(!": 6522,
      "Ġseeing": 6523,
      "Ġeventually": 6524,
      "anges": 6525,
      "nabla": 6526,
      "IO": 6527,
      "ĠAddition": 6528,
      "aine": 6529,
      "ĊĊĠĠĠĠĠĠ": 6530,
      "Ġpour": 6531,
      "Ġplasma": 6532,
      "agen": 6533,
      "ÙĪ": 6534,
      "md": 6535,
      "Ġdra": 6536,
      "Ġcontrolled": 6537,
      "sole": 6538,
      "ĠAlex": 6539,
      "onald": 6540,
      "KE": 6541,
      "Array": 6542,
      "ampions": 6543,
      "Ġappoint": 6544,
      "stood": 6545,
      "Ġemot": 6546,
      "cluding": 6547,
      "Ġreturns": 6548,
      "real": 6549,
      "ĠClass": 6550,
      "Ġneuro": 6551,
      "Ġexcell": 6552,
      "draw": 6553,
      "rer": 6554,
      "eric": 6555,
      "Ġholds": 6556,
      "Ġ------------": 6557,
      "Ġmaintain": 6558,
      "crib": 6559,
      "Ne": 6560,
      "Ġsecondary": 6561,
      "Ġdiab": 6562,
      "Ġnav": 6563,
      "ĠÐ´": 6564,
      "ords": 6565,
      "Ġbelieved": 6566,
      ",-": 6567,
      "Ġcamera": 6568,
      "Ġhappens": 6569,
      "ATION": 6570,
      "Ġmostly": 6571,
      "ĠTra": 6572,
      "Color": 6573,
      "Ġmiles": 6574,
      "ando": 6575,
      "Ġapparatus": 6576,
      "ND": 6577,
      "Ġdiseases": 6578,
      "asks": 6579,
      "})$": 6580,
      "Ġvirus": 6581,
      "ĠCA": 6582,
      "Ġconfirm": 6583,
      "vi": 6584,
      "Ġ2001": 6585,
      "Image": 6586,
      "RL": 6587,
      "ĠKore": 6588,
      "ĠAL": 6589,
      "Ġfilms": 6590,
      "nce": 6591,
      "Ã¶r": 6592,
      "Ġforth": 6593,
      "ads": 6594,
      "rie": 6595,
      "ĊĠĠĠĠĠĠĠĠĠĠĠĠĠĠĠĠĠĠĠĠĠĠĠĠĠĠĠ": 6596,
      "anes": 6597,
      "âĢĿ.": 6598,
      "icrosoft": 6599,
      "Ġaware": 6600,
      "Att": 6601,
      "/\\": 6602,
      "NE": 6603,
      "Ġjoin": 6604,
      "Ġsubstrate": 6605,
      "rive": 6606,
      "Ġrepresented": 6607,
      "opyright": 6608,
      "orders": 6609,
      "ĠFinally": 6610,
      "typ": 6611,
      "Ġreality": 6612,
      "Ġruns": 6613,
      "mittee": 6614,
      "Ġcelebr": 6615,
      "Ġmuscle": 6616,
      "Ġcrime": 6617,
      "ĠSet": 6618,
      "Ġrelief": 6619,
      "2015": 6620,
      "Ã±": 6621,
      "2013": 6622,
      "Fl": 6623,
      "\",\"": 6624,
      "ĠRob": 6625,
      "iller": 6626,
      "Ġbright": 6627,
      "ses": 6628,
      "Ġschools": 6629,
      "Ġsurvey": 6630,
      "ĠService": 6631,
      "Ġpregn": 6632,
      "reate": 6633,
      "Ġoccurs": 6634,
      "Ġgenerate": 6635,
      "Ġcharged": 6636,
      "Ġspectrum": 6637,
      "xture": 6638,
      "lets": 6639,
      "ĠNS": 6640,
      "Ġveloc": 6641,
      "Ġestimate": 6642,
      "}+": 6643,
      "plify": 6644,
      "Ġstatute": 6645,
      "ello": 6646,
      "ĠAR": 6647,
      "Map": 6648,
      "())": 6649,
      "gebra": 6650,
      "ĠFOR": 6651,
      "Ġlov": 6652,
      "aper": 6653,
      "Ġbalance": 6654,
      "ests": 6655,
      "arian": 6656,
      "Ġleader": 6657,
      "Ġserum": 6658,
      "________________": 6659,
      "]),": 6660,
      "Ġconfiguration": 6661,
      "Ġfundament": 6662,
      "PH": 6663,
      "orthern": 6664,
      "ync": 6665,
      "ithub": 6666,
      "Ġexamples": 6667,
      "iliar": 6668,
      "TC": 6669,
      "Ġdigit": 6670,
      "Ġteams": 6671,
      "care": 6672,
      "Ġmel": 6673,
      "matrix": 6674,
      "########": 6675,
      "ĠMany": 6676,
      "ln": 6677,
      "sa": 6678,
      "ogene": 6679,
      "Ġbattle": 6680,
      "mas": 6681,
      "api": 6682,
      "ye": 6683,
      "Ġdeveloping": 6684,
      "Ġextremely": 6685,
      "ãģª": 6686,
      "Ġdiag": 6687,
      "istent": 6688,
      "she": 6689,
      "ialog": 6690,
      "ĠMex": 6691,
      "ĠJapanese": 6692,
      "Any": 6693,
      "ĠVir": 6694,
      "Ġmorph": 6695,
      "ĠHall": 6696,
      "actory": 6697,
      "Ġjournal": 6698,
      "Ġfinished": 6699,
      "ĠMem": 6700,
      "Ġthanks": 6701,
      "arden": 6702,
      "Ġinner": 6703,
      "Ġsigned": 6704,
      "Ġ64": 6705,
      "Ġaf": 6706,
      "ĠRead": 6707,
      "itory": 6708,
      "istor": 6709,
      "ammat": 6710,
      "ocy": 6711,
      "weight": 6712,
      "crete": 6713,
      "Ġexcess": 6714,
      "Ñħ": 6715,
      "itative": 6716,
      "Ass": 6717,
      "Ġvoltage": 6718,
      "eles": 6719,
      "abilities": 6720,
      "DL": 6721,
      "Ġchronic": 6722,
      "Are": 6723,
      "ĠRet": 6724,
      "ĠSE": 6725,
      "Ġforced": 6726,
      "Ġtro": 6727,
      "Ġliver": 6728,
      "ĠObama": 6729,
      "Ġexamined": 6730,
      "iler": 6731,
      "nbsp": 6732,
      "Ġefficiency": 6733,
      "Ġ()": 6734,
      "Ġdebt": 6735,
      "ena": 6736,
      "omorph": 6737,
      "Ġsho": 6738,
      "FC": 6739,
      "Ġsrc": 6740,
      "ilder": 6741,
      "Ġdelivery": 6742,
      "ĠFranc": 6743,
      "Dis": 6744,
      "ĠFacebook": 6745,
      "Ġgar": 6746,
      "Ġneither": 6747,
      "ading": 6748,
      "Ġice": 6749,
      "\"></": 6750,
      "Ġprosec": 6751,
      "Ġ2002": 6752,
      "Ġauto": 6753,
      "Ð°Ð½": 6754,
      "2012": 6755,
      "source": 6756,
      "Ġagency": 6757,
      "ĠWhich": 6758,
      "2014": 6759,
      "Ġevaluated": 6760,
      "ortunately": 6761,
      "ĠCalculate": 6762,
      "Ġthousands": 6763,
      "FR": 6764,
      "åĪ": 6765,
      "FI": 6766,
      "widet": 6767,
      "dots": 6768,
      "Ġcolon": 6769,
      "alian": 6770,
      "amine": 6771,
      "appro": 6772,
      "Ġfish": 6773,
      "Ġsubsequent": 6774,
      "rivate": 6775,
      "Ġcycl": 6776,
      "Ġchosen": 6777,
      "ĠPhil": 6778,
      "Ġrepresentation": 6779,
      "Ġhighlight": 6780,
      "Ġ-->": 6781,
      "Ġadult": 6782,
      "Ġ500": 6783,
      "MR": 6784,
      "imb": 6785,
      "Ġachieved": 6786,
      "ifications": 6787,
      "\").": 6788,
      "Ġcalling": 6789,
      "local": 6790,
      "May": 6791,
      "rehen": 6792,
      "Ġrich": 6793,
      "ĠFriday": 6794,
      "small": 6795,
      "widetilde": 6796,
      "Ġdeg": 6797,
      "ĠJudge": 6798,
      "Ġdesired": 6799,
      "Log": 6800,
      "Ġalcoh": 6801,
      "Rep": 6802,
      "Ġassessment": 6803,
      "Ġmixed": 6804,
      "Ġarchitect": 6805,
      "ĠÃĹ": 6806,
      "ĠFoundation": 6807,
      "Ġissued": 6808,
      "Ġtag": 6809,
      "Ġ×": 6810,
      "ti": 6811,
      "Ste": 6812,
      "ĠMag": 6813,
      "Ġmeasurement": 6814,
      "Ġnic": 6815,
      "ancing": 6816,
      "ĠCircuit": 6817,
      "Ġtwenty": 6818,
      "omes": 6819,
      "dependent": 6820,
      "Ġspl": 6821,
      "ĠCollege": 6822,
      "ashion": 6823,
      "Ġ});": 6824,
      "Request": 6825,
      "Go": 6826,
      "ĠMrs": 6827,
      "Ġdirected": 6828,
      "á»": 6829,
      "Ġpossibly": 6830,
      "Ġcollege": 6831,
      "Ġsubstantial": 6832,
      "Ġmanufacture": 6833,
      "Ġattorney": 6834,
      "Ġintellig": 6835,
      "ola": 6836,
      "cup": 6837,
      "Ġgirls": 6838,
      "inst": 6839,
      "aked": 6840,
      "Ã¤n": 6841,
      "reshold": 6842,
      "Ġexplicit": 6843,
      ")\"": 6844,
      "ĠVol": 6845,
      "-------": 6846,
      "Ġtox": 6847,
      "Ġpaint": 6848,
      "Ġviews": 6849,
      "isher": 6850,
      "fee": 6851,
      "ĠDiv": 6852,
      "etric": 6853,
      "utor": 6854,
      "fa": 6855,
      "oking": 6856,
      "icated": 6857,
      "Ġbaby": 6858,
      "osa": 6859,
      "Ġintent": 6860,
      "Ġamb": 6861,
      "**(-": 6862,
      "Ġtight": 6863,
      "Ġdepth": 6864,
      "ĠTime": 6865,
      "Ġcriteria": 6866,
      "Ġtypical": 6867,
      "Ġsin": 6868,
      "Co": 6869,
      "result": 6870,
      "Ġiron": 6871,
      "These": 6872,
      "XX": 6873,
      "Ġsession": 6874,
      "ĠScience": 6875,
      "ician": 6876,
      "=======": 6877,
      "Count": 6878,
      "Ġ75": 6879,
      "Ġextension": 6880,
      "jud": 6881,
      "Ġcond": 6882,
      "Ġreceiving": 6883,
      "ĠLeague": 6884,
      "Ġprotected": 6885,
      "ĊĊĉ": 6886,
      "Ġpositions": 6887,
      "Ġdiscovered": 6888,
      "Ġvary": 6889,
      "Ġchanging": 6890,
      "Ġnarrow": 6891,
      "Che": 6892,
      "ĠFrank": 6893,
      "ipher": 6894,
      "Ġheter": 6895,
      "pack": 6896,
      "ĠNa": 6897,
      "Ġfilled": 6898,
      "ĠTheorem": 6899,
      "Ø±": 6900,
      "TS": 6901,
      "riend": 6902,
      "101": 6903,
      ")[": 6904,
      "IST": 6905,
      "Ġthin": 6906,
      "Ġangle": 6907,
      "ĠMA": 6908,
      "Ġdestroy": 6909,
      "Node": 6910,
      "ĠRobert": 6911,
      "ĠBay": 6912,
      "Ġnod": 6913,
      "2000": 6914,
      "ĠUsing": 6915,
      "å®": 6916,
      "mt": 6917,
      "ygen": 6918,
      "Ġfraction": 6919,
      "GB": 6920,
      "\\{": 6921,
      "}}_{": 6922,
      "Ġjump": 6923,
      "standing": 6924,
      "Ġpert": 6925,
      "ĠSunday": 6926,
      "Ġeasier": 6927,
      "Ġnetworks": 6928,
      "acle": 6929,
      "/**": 6930,
      "Ġ39": 6931,
      "ostic": 6932,
      "teen": 6933,
      "osh": 6934,
      "ĠLem": 6935,
      "Ġskills": 6936,
      "law": 6937,
      "Ġenvironmental": 6938,
      "ĠMil": 6939,
      "Ġlived": 6940,
      "Ġallowing": 6941,
      "Method": 6942,
      "ĠBi": 6943,
      "Ġunderlying": 6944,
      "Ġalt": 6945,
      "Ġlymph": 6946,
      "Ġspend": 6947,
      "ashed": 6948,
      "Ġinvestigated": 6949,
      "aren": 6950,
      "Ġchair": 6951,
      "mes": 6952,
      "create": 6953,
      "ocytes": 6954,
      "SM": 6955,
      "ĠMo": 6956,
      "ãģĮ": 6957,
      "Date": 6958,
      ")/(": 6959,
      "Ġordered": 6960,
      "2016": 6961,
      "supplementary": 6962,
      "Ġking": 6963,
      "duc": 6964,
      "apped": 6965,
      "Ġshock": 6966,
      "dimensional": 6967,
      "uh": 6968,
      "Ġfab": 6969,
      "Ġcurve": 6970,
      "SU": 6971,
      "mo": 6972,
      "Ġoutcomes": 6973,
      "Ġscheme": 6974,
      "ĠLike": 6975,
      "ĠAustralia": 6976,
      "uce": 6977,
      "Ġunivers": 6978,
      "Ġimaging": 6979,
      "Ġprincip": 6980,
      "Ġassay": 6981,
      "Ġeconomy": 6982,
      "Ġrecall": 6983,
      "ĠMad": 6984,
      "Ġtub": 6985,
      "default": 6986,
      "Ġune": 6987,
      "itely": 6988,
      "User": 6989,
      "Ġalter": 6990,
      "ceived": 6991,
      "rid": 6992,
      "Ġacts": 6993,
      "Ġpolar": 6994,
      "ĠIns": 6995,
      "ãĥ¼": 6996,
      "Ġacknow": 6997,
      "Group": 6998,
      "$(": 6999,
      "Ġdetailed": 7000,
      "Ġamaz": 7001,
      "Ġfourth": 7002,
      "child": 7003,
      "Ġasking": 7004,
      "Ġom": 7005,
      "Ġcompounds": 7006,
      "Ġinteger": 7007,
      "Equ": 7008,
      "ĠPen": 7009,
      "$$\\": 7010,
      "Ġisolated": 7011,
      "Ġapproved": 7012,
      "Ġemph": 7013,
      "Ã§Ã£o": 7014,
      "Ġchief": 7015,
      "Ġsorry": 7016,
      "Ġminute": 7017,
      "Ġsup": 7018,
      "Ġtwice": 7019,
      "Ġton": 7020,
      "ĠParty": 7021,
      "eding": 7022,
      "aturday": 7023,
      "Ġdepends": 7024,
      "icted": 7025,
      "Ġimmune": 7026,
      "Ġlie": 7027,
      "Ġmarried": 7028,
      "ÐµÑĢ": 7029,
      "ammatory": 7030,
      "Ġcoverage": 7031,
      "Ġcapable": 7032,
      "Ġrelates": 7033,
      "Aut": 7034,
      "ĠQue": 7035,
      "Ġconc": 7036,
      "Ġcompens": 7037,
      "Ġleaders": 7038,
      "ĠCommittee": 7039,
      "-----": 7040,
      "claim": 7041,
      "ells": 7042,
      "Ġsalt": 7043,
      "Ġsac": 7044,
      "Ġtranscript": 7045,
      "Ġspat": 7046,
      "Fil": 7047,
      "Ġappellant": 7048,
      "Ġtick": 7049,
      "Element": 7050,
      "Ġelectronic": 7051,
      "Ġstrongly": 7052,
      "first": 7053,
      "break": 7054,
      "ĠTur": 7055,
      "åħ": 7056,
      "ĠMa": 7057,
      "TO": 7058,
      "annels": 7059,
      "Ġsmart": 7060,
      "ĠHill": 7061,
      "Ġvacc": 7062,
      "Ġsitting": 7063,
      "dt": 7064,
      "Ð°ÑĤ": 7065,
      "ĠWeb": 7066,
      "ito": 7067,
      "iner": 7068,
      "ĠSum": 7069,
      "ipl": 7070,
      "Ġdefect": 7071,
      "Î³": 7072,
      "FP": 7073,
      "Ġbatter": 7074,
      "Ġterror": 7075,
      "mand": 7076,
      "asy": 7077,
      "--------------------------------------------------------------------------------------------------------------------------------": 7078,
      "Ġ+=": 7079,
      "ala": 7080,
      "Ġpossess": 7081,
      "][": 7082,
      "cr": 7083,
      "SL": 7084,
      "Ġhell": 7085,
      "]--": 7086,
      "ĠNor": 7087,
      "ĠGood": 7088,
      "Ġdecisions": 7089,
      "Äį": 7090,
      "Ġemployed": 7091,
      "Ġimplementation": 7092,
      "Your": 7093,
      "Ġentirely": 7094,
      "okes": 7095,
      "xe": 7096,
      "inations": 7097,
      "Ġgra": 7098,
      "ĠHen": 7099,
      "press": 7100,
      "Ġmarked": 7101,
      "Ġguide": 7102,
      "Ġevaluation": 7103,
      "Model": 7104,
      "operative": 7105,
      "Ġfocused": 7106,
      "Ġquiet": 7107,
      "ĠAmericans": 7108,
      "tex": 7109,
      "has": 7110,
      "ä½": 7111,
      "ido": 7112,
      "ĠdÃ©": 7113,
      "Ġtens": 7114,
      "ĠAssociation": 7115,
      "itable": 7116,
      "Ġlisted": 7117,
      "Ġsections": 7118,
      "Ġincident": 7119,
      "Ġplays": 7120,
      "ĠRiver": 7121,
      "Ġgod": 7122,
      "Ġsides": 7123,
      "Ġgluc": 7124,
      "Ġarguments": 7125,
      "Ġexcellent": 7126,
      "Ġ44": 7127,
      "itud": 7128,
      "\"}.": 7129,
      "According": 7130,
      "uesday": 7131,
      "2017": 7132,
      "Ġintensity": 7133,
      "Ġdiscrim": 7134,
      "select": 7135,
      "ÏĮ": 7136,
      "Ġtraffic": 7137,
      "Ġbrand": 7138,
      "Ġtrees": 7139,
      "Ġcategory": 7140,
      "Ġstored": 7141,
      "CI": 7142,
      "Ġduty": 7143,
      "Ġgly": 7144,
      "Ġcorner": 7145,
      "Click": 7146,
      "Ġversus": 7147,
      "Ġexplan": 7148,
      "ãģĻ": 7149,
      "Ġquarter": 7150,
      "ket": 7151,
      "doc": 7152,
      "ĠLeg": 7153,
      "Ġbroken": 7154,
      "Ġpercentage": 7155,
      "Ġdream": 7156,
      "unc": 7157,
      "Ġaccord": 7158,
      "Ġdefendants": 7159,
      "ĠTheir": 7160,
      "Where": 7161,
      "Ġconfidence": 7162,
      "Ġnom": 7163,
      "Ġraise": 7164,
      "}.": 7165,
      "Ġju": 7166,
      "ĠSN": 7167,
      "Ġlose": 7168,
      "Ġgranted": 7169,
      "Ġadvance": 7170,
      "Ġbeat": 7171,
      "oday": 7172,
      "iot": 7173,
      "006": 7174,
      "Ġforg": 7175,
      "ITH": 7176,
      "Ġdocuments": 7177,
      "Ġpathway": 7178,
      "Ð¿": 7179,
      "Ġtables": 7180,
      "Ġobser": 7181,
      ")=\\": 7182,
      "áĢ": 7183,
      "wed": 7184,
      "Ġfreedom": 7185,
      "gression": 7186,
      "bal": 7187,
      "ĠVer": 7188,
      "Ġincub": 7189,
      "cial": 7190,
      "ĠForm": 7191,
      "Ġunderstood": 7192,
      "ailed": 7193,
      "Ġmainly": 7194,
      "ĠThomas": 7195,
      "Ġ&=": 7196,
      "Ġworse": 7197,
      "ĠFin": 7198,
      "2010": 7199,
      "Ġaccuracy": 7200,
      "Ġ${{\\": 7201,
      "Ġunknown": 7202,
      "Ġspring": 7203,
      "Ġjour": 7204,
      "Ġmanager": 7205,
      "Ġoblig": 7206,
      "Ġphilos": 7207,
      "Ġfrequently": 7208,
      "reek": 7209,
      "valid": 7210,
      "Ġnotes": 7211,
      "Ġformula": 7212,
      "ĠWed": 7213,
      "ĠOnly": 7214,
      "agger": 7215,
      "ĠMonday": 7216,
      "Ġviolence": 7217,
      "Ġmetabol": 7218,
      "Ġplanning": 7219,
      "ĠER": 7220,
      "Ġminim": 7221,
      "Ġpas": 7222,
      "Ġpages": 7223,
      "Ġ${": 7224,
      "ĠBook": 7225,
      "áĥ": 7226,
      "Ġrough": 7227,
      "uls": 7228,
      "xml": 7229,
      "ĠFlor": 7230,
      "Ġreligious": 7231,
      "kins": 7232,
      "ĠBrown": 7233,
      "Ġstatements": 7234,
      "Ġion": 7235,
      "Ġfuel": 7236,
      "Ġevening": 7237,
      "Ġegg": 7238,
      "Ġpy": 7239,
      "adow": 7240,
      "Ġprotocol": 7241,
      "Ġabuse": 7242,
      "ĠOnce": 7243,
      "Ġarrived": 7244,
      "ĠWH": 7245,
      "AAAA": 7246,
      "ĠRussian": 7247,
      "Ġregulation": 7248,
      "å¤": 7249,
      "ested": 7250,
      "Ġ65": 7251,
      "ĠWilliam": 7252,
      "Ġseconds": 7253,
      "]--[@": 7254,
      "Ġadministr": 7255,
      "Ã¸": 7256,
      "Ġdeliver": 7257,
      "GC": 7258,
      "Ġprocedures": 7259,
      "Ġcharges": 7260,
      "kl": 7261,
      "oret": 7262,
      "Ġtor": 7263,
      "Ġguarant": 7264,
      "main": 7265,
      "Ġpp": 7266,
      "query": 7267,
      "Ġintervention": 7268,
      "Ġadvanced": 7269,
      "Ġcaught": 7270,
      "else": 7271,
      "amber": 7272,
      "UD": 7273,
      "Ġapproaches": 7274,
      "Ġtom": 7275,
      "gers": 7276,
      "Ġcompare": 7277,
      "Ġenhance": 7278,
      "Ġconsult": 7279,
      "github": 7280,
      "Ġcart": 7281,
      "BP": 7282,
      "GA": 7283,
      "ĠGold": 7284,
      "Ġopposite": 7285,
      "Ġappearance": 7286,
      "endif": 7287,
      "Ġ55": 7288,
      "Ġsale": 7289,
      "venue": 7290,
      "Ġcritic": 7291,
      "roke": 7292,
      "Ġdepending": 7293,
      "}}^": 7294,
      "ĠGovernment": 7295,
      "Ġconsidering": 7296,
      "çĶ": 7297,
      "icago": 7298,
      "bid": 7299,
      "anta": 7300,
      "Ġbool": 7301,
      "Ġowner": 7302,
      "Ġmanaged": 7303,
      "Solve": 7304,
      "acks": 7305,
      "ĠCr": 7306,
      "Â¶": 7307,
      "Ċĉĉĉĉĉ": 7308,
      "ĠCI": 7309,
      "OUT": 7310,
      "gi": 7311,
      "Ġusual": 7312,
      "Ġobservations": 7313,
      "Ġadvert": 7314,
      "Ġtelevision": 7315,
      "Ġquery": 7316,
      "cut": 7317,
      "Ġca": 7318,
      "Ġseat": 7319,
      "Ġpulled": 7320,
      "Ġmodified": 7321,
      "gent": 7322,
      "Ġcort": 7323,
      "Ġcompetition": 7324,
      "imately": 7325,
      "Å¡": 7326,
      "ĠField": 7327,
      "Ġstimul": 7328,
      "Ġexposed": 7329,
      "2011": 7330,
      "Ġau": 7331,
      "gt": 7332,
      "sor": 7333,
      "posed": 7334,
      "ĠSl": 7335,
      "ĠInternet": 7336,
      "oster": 7337,
      "sect": 7338,
      "Ġillustr": 7339,
      "Ġsensitivity": 7340,
      "dir": 7341,
      "Ġgoals": 7342,
      "Ġaccident": 7343,
      "Ġconflict": 7344,
      "Ġdoctor": 7345,
      "Ġ120": 7346,
      "Ġvess": 7347,
      "utely": 7348,
      "Ġcos": 7349,
      "Ġconcerns": 7350,
      "Ġbag": 7351,
      "uy": 7352,
      "Ġsweet": 7353,
      "Ġconsc": 7354,
      "Ġrecovery": 7355,
      "Ġstick": 7356,
      "Ġtill": 7357,
      "Ġaccum": 7358,
      "ĠAnn": 7359,
      "Ġpod": 7360,
      "Ġris": 7361,
      "Ġscr": 7362,
      "Ġscores": 7363,
      "Ġlimitations": 7364,
      "Ġindepend": 7365,
      "edia": 7366,
      "Ġorders": 7367,
      "Ġcluster": 7368,
      "Ġresulted": 7369,
      "Ġanalog": 7370,
      "Which": 7371,
      "Ġstrain": 7372,
      "mi": 7373,
      "Ġalle": 7374,
      "Ġjobs": 7375,
      "ursday": 7376,
      "Ġdistingu": 7377,
      "Ġwilling": 7378,
      "ĠUN": 7379,
      "akers": 7380,
      "ko": 7381,
      "otten": 7382,
      "ellular": 7383,
      "Ġassuming": 7384,
      "enth": 7385,
      "CF": 7386,
      "Ġble": 7387,
      "ĠSD": 7388,
      "estic": 7389,
      "bour": 7390,
      "olt": 7391,
      "Ġecho": 7392,
      "Ġrac": 7393,
      "Ġgate": 7394,
      "ĠWill": 7395,
      "ORT": 7396,
      "organ": 7397,
      ")}\\": 7398,
      "istan": 7399,
      "ITY": 7400,
      "cretion": 7401,
      "Ġended": 7402,
      "ĠCT": 7403,
      "process": 7404,
      ";\\": 7405,
      "ĠLouis": 7406,
      "Ġexperienced": 7407,
      "Ġtrip": 7408,
      "Ġinvestigate": 7409,
      "Ġconstitution": 7410,
      "iral": 7411,
      "ĠAS": 7412,
      "ifferent": 7413,
      "MD": 7414,
      ")^{": 7415,
      "Ġjoined": 7416,
      "rip": 7417,
      "Ġnumerous": 7418,
      "Ġapart": 7419,
      "Pre": 7420,
      "ĠĠĠĠĠĠĠĠĠĠĠĠĠĠĠĠĠĠĠĠĠĠĠĠĠĠĠĠĠĠĠĠĠĠĠĠĠĠĠĠĠĠĠĠĠĠĠĠĠĠĠĠĠĠĠĠĠĠĠĠĠĠĠĠĠĠĠĠĠĠĠĠĠĠĠĠĠĠĠĠĠĠĠĠĠĠĠĠĠĠĠĠĠĠĠĠĠĠĠĠĠĠĠĠĠĠĠĠĠĠĠĠĠĠĠĠĠĠĠĠĠĠĠĠĠĠĠĠĠĠĠĠĠĠĠĠĠĠĠĠĠĠĠĠĠĠĠĠĠĠĠĠĠĠĠĠĠĠĠĠĠĠĠĠĠĠĠĠĠĠĠĠĠĠĠĠĠĠĠĠĠĠĠĠĠĠĠĠĠĠĠĠĠĠĠĠĠĠĠĠĠĠĠĠĠĠĠĠĠĠĠĠĠĠĠĠĠĠĠĠĠĠĠĠĠĠĠĠĠĠĠĠĠĠĠĠĠĠĠĠĠĠĠĠĠĠĠĠĠĠĠĠĠĠĠĠ": 7421,
      "ĠRussia": 7422,
      "Ġhall": 7423,
      "Ġequations": 7424,
      "Ġdil": 7425,
      "clusive": 7426,
      "Ø§ÙĦ": 7427,
      "Ġwalked": 7428,
      "Ġentitled": 7429,
      "rypt": 7430,
      "Ġcandidate": 7431,
      "sin": 7432,
      "^+^": 7433,
      "Ġphenomen": 7434,
      "Ġfuck": 7435,
      "height": 7436,
      "Ġpieces": 7437,
      "imer": 7438,
      "rapeut": 7439,
      "Ġresearc": 7440,
      "Ġdetermination": 7441,
      "Ġorient": 7442,
      "ilty": 7443,
      "**]{}": 7444,
      "Ġideal": 7445,
      "Ġreplic": 7446,
      "anda": 7447,
      "/-": 7448,
      "Ġ00": 7449,
      "Ġpush": 7450,
      "olean": 7451,
      "ĠHIV": 7452,
      "Ġrestaur": 7453,
      "ĠOffice": 7454,
      "bered": 7455,
      "Service": 7456,
      "Ġnine": 7457,
      "Ġfans": 7458,
      "oded": 7459,
      "Ġqui": 7460,
      "then": 7461,
      "Ġgrav": 7462,
      "Ġarter": 7463,
      "ĠWindows": 7464,
      "Ġstandards": 7465,
      "Ġexpansion": 7466,
      "Ġduration": 7467,
      "uscript": 7468,
      "Ġ300": 7469,
      "Ġsuitable": 7470,
      "Ġpurchase": 7471,
      "Ġevaluate": 7472,
      "Ġformal": 7473,
      "Message": 7474,
      "Gen": 7475,
      "ateral": 7476,
      "Ġmine": 7477,
      "Ġrecognized": 7478,
      "Ġimpossible": 7479,
      "ometric": 7480,
      "_,": 7481,
      "Ġdraft": 7482,
      "only": 7483,
      "Ġplot": 7484,
      "endment": 7485,
      "ĠÐ¿ÑĢ": 7486,
      "Ġwatching": 7487,
      "Ġpreval": 7488,
      "ĠOpen": 7489,
      "Ïī": 7490,
      "Ġboot": 7491,
      "Ġhem": 7492,
      "ĠScott": 7493,
      "Ġdispl": 7494,
      "Ġoxid": 7495,
      "Ġguard": 7496,
      "Ġhumans": 7497,
      "Rev": 7498,
      "ĠFR": 7499,
      "ĠTR": 7500,
      "Ġwarrant": 7501,
      "nesday": 7502,
      "Ġvirtual": 7503,
      "External": 7504,
      "Ġbug": 7505,
      "({": 7506,
      "comple": 7507,
      "ÐµÑĤ": 7508,
      "product": 7509,
      "Fe": 7510,
      "ĠLu": 7511,
      "Ġphoto": 7512,
      "lik": 7513,
      "Ġconcerned": 7514,
      "Ġassessed": 7515,
      "Ġluck": 7516,
      "Ġmission": 7517,
      "ĠHel": 7518,
      "CK": 7519,
      "Ġrare": 7520,
      "âĢĿ,": 7521,
      "Ġfill": 7522,
      "war": 7523,
      "Ġ{{\\": 7524,
      "Ġconclude": 7525,
      "anning": 7526,
      "scale": 7527,
      "ĠBre": 7528,
      "Ġparallel": 7529,
      "ugin": 7530,
      "ĠAfrica": 7531,
      "ĠMass": 7532,
      "Ġsettings": 7533,
      "Ġbiological": 7534,
      "Ġadvice": 7535,
      "Box": 7536,
      "Ġsand": 7537,
      "GE": 7538,
      "ĠÂ«": 7539,
      "iples": 7540,
      "andon": 7541,
      "Since": 7542,
      "Ġ47": 7543,
      "Ġ1999": 7544,
      "iences": 7545,
      "ulture": 7546,
      "\"})": 7547,
      "Ġboundary": 7548,
      "rency": 7549,
      "Ġcris": 7550,
      "orted": 7551,
      "Ġbecoming": 7552,
      "tw": 7553,
      "300": 7554,
      "del": 7555,
      "icious": 7556,
      "Line": 7557,
      "Ġclaimed": 7558,
      "Ge": 7559,
      "Ġspoke": 7560,
      "Ġwidely": 7561,
      "Ġkeeping": 7562,
      "Ġbudget": 7563,
      "ben": 7564,
      "ĠEarth": 7565,
      "ainer": 7566,
      "ĠRef": 7567,
      "Ġdemonstrate": 7568,
      "Ġknock": 7569,
      "INE": 7570,
      "Ġjurisdiction": 7571,
      "fess": 7572,
      "Te": 7573,
      "Ġfort": 7574,
      "PU": 7575,
      "Ġaccompl": 7576,
      "adian": 7577,
      "Ġconsent": 7578,
      "Ġremark": 7579,
      "Ent": 7580,
      "Ġconven": 7581,
      "author": 7582,
      "Ġfavorite": 7583,
      "Ġ49": 7584,
      "web": 7585,
      "Ġsister": 7586,
      "Ġtrials": 7587,
      "ami": 7588,
      "ju": 7589,
      "Ġpet": 7590,
      "Ġunable": 7591,
      "Ġdisk": 7592,
      "ĠSolve": 7593,
      "never": 7594,
      "Ġgalax": 7595,
      "Ġtrouble": 7596,
      "zeta": 7597,
      "Ġreprodu": 7598,
      "Ġadm": 7599,
      "Ġrats": 7600,
      "Ġsignaling": 7601,
      "Ġvelocity": 7602,
      "aven": 7603,
      "tra": 7604,
      "Ġstatistical": 7605,
      "usiness": 7606,
      "Ġaccepted": 7607,
      "ĠTor": 7608,
      "Ġ41": 7609,
      "ijms": 7610,
      "SR": 7611,
      "ĠMer": 7612,
      "Ġhence": 7613,
      "src": 7614,
      "Ġfamiliar": 7615,
      "Ġspecified": 7616,
      "Ġdecide": 7617,
      "ĠCarol": 7618,
      "Ġdress": 7619,
      "Ð¸ÑĤ": 7620,
      "Ġdatas": 7621,
      "Ġroute": 7622,
      "Ġneck": 7623,
      "Ġthereby": 7624,
      "Ġpopulations": 7625,
      "Ġjava": 7626,
      "Ġhoriz": 7627,
      "}=\\": 7628,
      "Ġvariation": 7629,
      "Ġdomin": 7630,
      "********************************": 7631,
      "Ġnodes": 7632,
      "ĊĠĠĠĠĠĠĠĠĠĠ": 7633,
      "ĠBur": 7634,
      "Ġthr": 7635,
      "Ġloved": 7636,
      "Ġends": 7637,
      "Pol": 7638,
      "ivation": 7639,
      "ums": 7640,
      "ĠBill": 7641,
      "Ġsuppl": 7642,
      "ĠĠĠĠĠĠĠĠĠĠĠĠĠĠĠĠĠĠĠĠĠĠĠĠĠ": 7643,
      "Ġdisp": 7644,
      "model": 7645,
      "Ġtemplate": 7646,
      "La": 7647,
      "ĠFree": 7648,
      "Ġmand": 7649,
      "ĠAppe": 7650,
      "ĠNO": 7651,
      "Ġ43": 7652,
      "Ġpept": 7653,
      "Ġstrict": 7654,
      "otted": 7655,
      "TA": 7656,
      "Simplify": 7657,
      "Ġconstraint": 7658,
      "ĠDec": 7659,
      "Ġattached": 7660,
      "Ġrevers": 7661,
      "roduction": 7662,
      "Ġrecording": 7663,
      "Ġworry": 7664,
      "Ġalcohol": 7665,
      "ernel": 7666,
      "ĠGal": 7667,
      "Ġinvolving": 7668,
      "AGE": 7669,
      "ĠJesus": 7670,
      "ĠFederal": 7671,
      ")*(": 7672,
      "More": 7673,
      "Ġcab": 7674,
      "lu": 7675,
      "Ref": 7676,
      "Ġstret": 7677,
      "Ã©e": 7678,
      "ÅĤ": 7679,
      "Ġcontribution": 7680,
      "Ġtechnical": 7681,
      "ĠDen": 7682,
      "velopment": 7683,
      "Ġos": 7684,
      "legal": 7685,
      "idelines": 7686,
      "Ġod": 7687,
      "Ġrelationships": 7688,
      "End": 7689,
      "Ġped": 7690,
      "Ġcof": 7691,
      "Ġrub": 7692,
      "cp": 7693,
      "arl": 7694,
      "ching": 7695,
      "ponse": 7696,
      "enance": 7697,
      "grade": 7698,
      "Ġsan": 7699,
      "bug": 7700,
      "Ġmurder": 7701,
      "Ġencoun": 7702,
      "Ġseek": 7703,
      "road": 7704,
      "ĠFIG": 7705,
      "wing": 7706,
      "eller": 7707,
      "iverse": 7708,
      "Ġcogn": 7709,
      "Mr": 7710,
      "YPE": 7711,
      "ĠSing": 7712,
      "ytic": 7713,
      "Ġmanuscript": 7714,
      "Ġfellow": 7715,
      "NO": 7716,
      "ĠTimes": 7717,
      "cdots": 7718,
      "åĲ": 7719,
      "ector": 7720,
      "?âĢĿ": 7721,
      "MC": 7722,
      "Ġdans": 7723,
      "ĠServ": 7724,
      "Ġkne": 7725,
      "Ġinterval": 7726,
      "ĠRichard": 7727,
      "ĠZe": 7728,
      "Ġhelps": 7729,
      "Ġcommitted": 7730,
      "Ġcustomer": 7731,
      "Ġpersons": 7732,
      "ĠWork": 7733,
      "Ġ};": 7734,
      "Ġabund": 7735,
      "ogenic": 7736,
      "hentic": 7737,
      "Ġsuggesting": 7738,
      "%.": 7739,
      "Ġforget": 7740,
      "Ġresource": 7741,
      "Ġradiation": 7742,
      "ĠSecret": 7743,
      "Ġcommonly": 7744,
      "Look": 7745,
      "Ġtelling": 7746,
      "Ġadults": 7747,
      "(\\[": 7748,
      "110": 7749,
      "false": 7750,
      "ĠIran": 7751,
      "sts": 7752,
      "Ġgro": 7753,
      "ĠRad": 7754,
      "Ġcolle": 7755,
      "Ġimprovement": 7756,
      "ĠHence": 7757,
      "ĠFlorida": 7758,
      "Ġdegrees": 7759,
      "aped": 7760,
      "System": 7761,
      "Ð·": 7762,
      "Ġapplicable": 7763,
      "ĠPlease": 7764,
      "Ġsoul": 7765,
      "Ã¡s": 7766,
      "Ġenforce": 7767,
      "Ġoxygen": 7768,
      "defined": 7769,
      "============": 7770,
      "Ġfle": 7771,
      "à¹": 7772,
      "Ġvillage": 7773,
      "Ġarticles": 7774,
      "Ġì": 7775,
      "ochem": 7776,
      "Ġtruly": 7777,
      "charge": 7778,
      "water": 7779,
      "}}{\\": 7780,
      "Source": 7781,
      "ivered": 7782,
      "Ġ150": 7783,
      "tag": 7784,
      "ĠParis": 7785,
      "ĠÑ": 7786,
      "Ġlimits": 7787,
      "Ġcontinues": 7788,
      "Ġbranch": 7789,
      "ifies": 7790,
      "month": 7791,
      "Ġframework": 7792,
      "Ġhole": 7793,
      "Ġaspects": 7794,
      "inet": 7795,
      "Ġassembly": 7796,
      "clusions": 7797,
      "2018": 7798,
      "Ġsought": 7799,
      "Ġpharm": 7800,
      "thm": 7801,
      "Ġmixture": 7802,
      "Â§": 7803,
      "ĠRule": 7804,
      "otherapy": 7805,
      "phen": 7806,
      "brid": 7807,
      "Ġslowly": 7808,
      "Ġindicating": 7809,
      "ASS": 7810,
      "Ġdepartment": 7811,
      "ĠMont": 7812,
      "ĠLife": 7813,
      "ĠSaturday": 7814,
      "Ġcitizens": 7815,
      "etime": 7816,
      "BU": 7817,
      "ructure": 7818,
      "Ġturns": 7819,
      "ĠInstead": 7820,
      "inv": 7821,
      "athy": 7822,
      "Ġpolicies": 7823,
      "Ġwalking": 7824,
      "Ġadequ": 7825,
      "Ġpotentially": 7826,
      "Ġconversation": 7827,
      "ĠĠĠĠĠĠĠĠĠĠĠĠĠĠĠĠĠĠĠĠĠĠĠĠĠĠ": 7828,
      "Ġcourts": 7829,
      "Ġpayment": 7830,
      "target": 7831,
      "Ġpartner": 7832,
      "ĊĠĠĠĠĠĠĠĠĠĠĠĠ": 7833,
      "Part": 7834,
      "Ġsounds": 7835,
      "cf": 7836,
      "acent": 7837,
      "omal": 7838,
      "ilton": 7839,
      "ĠSH": 7840,
      "azine": 7841,
      "Ġcellular": 7842,
      "oration": 7843,
      "Ġaxis": 7844,
      "Please": 7845,
      "Ġast": 7846,
      "%%": 7847,
      "Ġafford": 7848,
      "ushing": 7849,
      "ĠIts": 7850,
      "ether": 7851,
      "ĠMS": 7852,
      "herent": 7853,
      "ĠIr": 7854,
      "iary": 7855,
      "Ġhat": 7856,
      "2009": 7857,
      "LS": 7858,
      "Ġtestified": 7859,
      "aciÃ³n": 7860,
      "Ġpil": 7861,
      "Ġconj": 7862,
      "Ġmassive": 7863,
      "FS": 7864,
      "Call": 7865,
      "Ġstarts": 7866,
      "Ġperman": 7867,
      "ophy": 7868,
      "Ð¾Ð»": 7869,
      "Ġdynamic": 7870,
      "Ġsigns": 7871,
      "option": 7872,
      "star": 7873,
      "ĠFour": 7874,
      "Ġmarriage": 7875,
      "eli": 7876,
      "Ġdimension": 7877,
      "American": 7878,
      "ĠTwitter": 7879,
      "Ġabsolute": 7880,
      "Ġchallenges": 7881,
      "Ġstability": 7882,
      "Who": 7883,
      "$)": 7884,
      "yer": 7885,
      "names": 7886,
      "Ġthreshold": 7887,
      "Ġcommunities": 7888,
      "ĠSand": 7889,
      "ĠUse": 7890,
      "Ġmortality": 7891,
      "Ġcm": 7892,
      "mid": 7893,
      "arsh": 7894,
      "Ġsecure": 7895,
      "ela": 7896,
      "Ġans": 7897,
      "Ġpartial": 7898,
      "Ġaccurate": 7899,
      "ĠWhere": 7900,
      "Ġ1990": 7901,
      "ĠJohnson": 7902,
      "ĠMax": 7903,
      "Ġ46": 7904,
      "Ġhal": 7905,
      "Ġthoughts": 7906,
      "Ġdepart": 7907,
      "Ġflag": 7908,
      "oral": 7909,
      "Two": 7910,
      "Ġprices": 7911,
      "Bar": 7912,
      "mg": 7913,
      "Ġinterpretation": 7914,
      "Ġdys": 7915,
      "layout": 7916,
      "aded": 7917,
      "ĠGive": 7918,
      "Ġtypename": 7919,
      "rine": 7920,
      "Ġrelax": 7921,
      "Ġassigned": 7922,
      "Ġpolymer": 7923,
      "ĠJose": 7924,
      "Ġnative": 7925,
      "Ġrecip": 7926,
      "helial": 7927,
      "Ġacute": 7928,
      "Ġhur": 7929,
      "umns": 7930,
      "007": 7931,
      "Ġreplaced": 7932,
      "Ġnecessarily": 7933,
      "Ġsole": 7934,
      "Ġinstrument": 7935,
      "Ġfundamental": 7936,
      "udd": 7937,
      "Ġfaster": 7938,
      "Ġlinked": 7939,
      "Ġdivers": 7940,
      "BR": 7941,
      "Ġcash": 7942,
      "Ġcharacterized": 7943,
      "Ġtissues": 7944,
      "Ġconcluded": 7945,
      "Ġoral": 7946,
      "rior": 7947,
      "ĠTuesday": 7948,
      "ĠSil": 7949,
      "Ġlarg": 7950,
      "čĊĉ": 7951,
      "Ġclimate": 7952,
      "ĠDO": 7953,
      "Ġfo": 7954,
      "dep": 7955,
      "ĠCE": 7956,
      "fast": 7957,
      "uz": 7958,
      "ĠmRNA": 7959,
      "Ġmerely": 7960,
      "ante": 7961,
      "ĠStr": 7962,
      "Ġphotos": 7963,
      "Ġdefinitely": 7964,
      "Ġdefe": 7965,
      "Ġfluores": 7966,
      "ĠBig": 7967,
      "Ġpictures": 7968,
      "arks": 7969,
      "Ġannual": 7970,
      "Ġfacilit": 7971,
      "Ġmicrosc": 7972,
      "build": 7973,
      "ÃĤ": 7974,
      "Ġfold": 7975,
      "Ġdependent": 7976,
      "Ġburden": 7977,
      "Ġimmig": 7978,
      "Ġsynd": 7979,
      "ĠFrancis": 7980,
      "Ġlicense": 7981,
      "Ġmetric": 7982,
      "onym": 7983,
      "ĠArch": 7984,
      "Ġvisible": 7985,
      "hether": 7986,
      "Ġprolif": 7987,
      "LC": 7988,
      "Ġfan": 7989,
      "Ġscope": 7990,
      "Ġvitro": 7991,
      "Ext": 7992,
      "ĠPeter": 7993,
      "Vert": 7994,
      "ĠFore": 7995,
      "Ġsensitive": 7996,
      "Ġinstructions": 7997,
      "Ġ\"(": 7998,
      "INT": 7999,
      "Ġaccel": 8000,
      "\\]).": 8001,
      "nav": 8002,
      "Ġcloser": 8003,
      "Ġsmallest": 8004,
      "Ġprotest": 8005,
      "ented": 8006,
      "Ġdecades": 8007,
      "Ġinteract": 8008,
      "dule": 8009,
      "ĠPA": 8010,
      "^-": 8011,
      "2008": 8012,
      "Ġplastic": 8013,
      "Ġthousand": 8014,
      "ERR": 8015,
      "NF": 8016,
      "ĠIT": 8017,
      "Ġimplies": 8018,
      "ĠIV": 8019,
      "ji": 8020,
      "ĠEX": 8021,
      "PI": 8022,
      "apse": 8023,
      "ĠEr": 8024,
      "Ġassumed": 8025,
      "Ġ56": 8026,
      "Ġlaunch": 8027,
      "Ġlisten": 8028,
      "ributes": 8029,
      "Ġgent": 8030,
      "Ġstack": 8031,
      "ima": 8032,
      "ĠIslam": 8033,
      "Ġcra": 8034,
      "ĠAnother": 8035,
      "bling": 8036,
      "Ġgap": 8037,
      "Ġinstalled": 8038,
      "Ġhousing": 8039,
      "ĠCap": 8040,
      "Ġattend": 8041,
      "Ġpointed": 8042,
      "Ġflav": 8043,
      "ĠĠĠĠĠĠĠĠĠĠĠĠĠĠĠĠĠĠĠĠĠĠĠĠĠĠĠ": 8044,
      "event": 8045,
      "Ġenable": 8046,
      "iger": 8047,
      ":\\": 8048,
      "ĠProject": 8049,
      "Ġbare": 8050,
      "ampionship": 8051,
      "adding": 8052,
      "Query": 8053,
      "undle": 8054,
      "ounded": 8055,
      "omer": 8056,
      "ĠLong": 8057,
      "Ġproved": 8058,
      "Ġconference": 8059,
      "button": 8060,
      "Thanks": 8061,
      "Ġdynamics": 8062,
      "Ġprinciple": 8063,
      "Ġfunds": 8064,
      "Ġ1998": 8065,
      "Ġpix": 8066,
      "Ġfabric": 8067,
      "ĠChicago": 8068,
      "Ġeffectively": 8069,
      "icular": 8070,
      "Ġreact": 8071,
      "ĠEnd": 8072,
      "Ġ52": 8073,
      "mosp": 8074,
      "ials": 8075,
      "cat": 8076,
      "Ġsimpl": 8077,
      "ĠType": 8078,
      "ĠIndeed": 8079,
      "Ġhero": 8080,
      "ĠPo": 8081,
      "à¦": 8082,
      "Ġunion": 8083,
      "Ġsqrt": 8084,
      "Ġsplit": 8085,
      "Ġarbitr": 8086,
      "Ġrail": 8087,
      "\\[[@": 8088,
      "fold": 8089,
      "Ġlayers": 8090,
      "Ġparticle": 8091,
      "Ġantibody": 8092,
      "Stream": 8093,
      "Ġmolecules": 8094,
      "ĠÏĢ": 8095,
      "Am": 8096,
      "Ġven": 8097,
      "eness": 8098,
      "Ġwalls": 8099,
      "ACK": 8100,
      "nel": 8101,
      "dict": 8102,
      "Ġobjective": 8103,
      "Ġattacks": 8104,
      "Ġtail": 8105,
      "Ġguilty": 8106,
      "Ġreverse": 8107,
      "pload": 8108,
      "Ġsupporting": 8109,
      "Ġvot": 8110,
      "rows": 8111,
      "END": 8112,
      "Ġvision": 8113,
      "&=": 8114,
      "Ġmaps": 8115,
      "Back": 8116,
      "Ð°Ð»": 8117,
      "ĠAfrican": 8118,
      "Ġcommission": 8119,
      "Ġoccasion": 8120,
      "Ġeditor": 8121,
      "ressive": 8122,
      "Ġchannels": 8123,
      "format": 8124,
      "aria": 8125,
      "Ġcoh": 8126,
      "Ġlargely": 8127,
      "Ġfees": 8128,
      "ĠĊĠĠĠ": 8129,
      "Ġstrategies": 8130,
      "Ġpredicted": 8131,
      "Ġrig": 8132,
      "Ġputting": 8133,
      "ĠÑĤ": 8134,
      "Ġshell": 8135,
      "Ġpassing": 8136,
      "Ġidentification": 8137,
      "Ġwaste": 8138,
      "ĠâĢ¦": 8139,
      "iously": 8140,
      "ĠStar": 8141,
      "Ġfashion": 8142,
      "Ġperm": 8143,
      "ĠSol": 8144,
      "!--": 8145,
      "Ġreson": 8146,
      "ERE": 8147,
      "ĠCle": 8148,
      "Ġinvestment": 8149,
      "Ġtoler": 8150,
      "Ġfeat": 8151,
      "irector": 8152,
      "ĠIP": 8153,
      "Ġhun": 8154,
      "dist": 8155,
      "Ġrealized": 8156,
      "ĠÂ£": 8157,
      "Ġbath": 8158,
      "pg": 8159,
      "ĠON": 8160,
      "Hz": 8161,
      "Ġcontribute": 8162,
      "oked": 8163,
      "Ġinstant": 8164,
      "ollowing": 8165,
      "Ġlaser": 8166,
      "ĠDefendant": 8167,
      "Ġ[]": 8168,
      "Ġmessages": 8169,
      "ĠCentral": 8170,
      "Ġreplace": 8171,
      "linear": 8172,
      "čĊĠĠĠĠĠĠĠĠĠĠĠ": 8173,
      "ĠJo": 8174,
      "ottom": 8175,
      "Ġadmitted": 8176,
      "urop": 8177,
      "ĠWal": 8178,
      "ftware": 8179,
      "Ġconsideration": 8180,
      "Øª": 8181,
      "ĠLi": 8182,
      "Ġemployee": 8183,
      "Ġsight": 8184,
      "inton": 8185,
      "plant": 8186,
      "Ġ72": 8187,
      "Ġradi": 8188,
      "athered": 8189,
      "contin": 8190,
      "Ġinformed": 8191,
      "ĠLog": 8192,
      "120": 8193,
      "Ġsched": 8194,
      "Another": 8195,
      "128": 8196,
      "Ġestimates": 8197,
      "Ġepit": 8198,
      "EV": 8199,
      "**,": 8200,
      "ipping": 8201,
      "yan": 8202,
      "Ġcontem": 8203,
      "Ñİ": 8204,
      "Ġpursu": 8205,
      "life": 8206,
      "Ind": 8207,
      "Ġintention": 8208,
      "FIG": 8209,
      "Ġ1997": 8210,
      "eting": 8211,
      "Ġcomposite": 8212,
      "Ġmatters": 8213,
      "Ġexpensive": 8214,
      "ĠEU": 8215,
      "ĠThursday": 8216,
      "ĠApple": 8217,
      "lectric": 8218,
      "Ġargues": 8219,
      "??": 8220,
      "ĠNav": 8221,
      "effect": 8222,
      "Ġsegment": 8223,
      "Manager": 8224,
      "Ġtit": 8225,
      "ontal": 8226,
      "Ġsuc": 8227,
      "Ġgrown": 8228,
      "ĠSk": 8229,
      "Ġblow": 8230,
      "Ġdropped": 8231,
      "Ġzone": 8232,
      "rapeutic": 8233,
      "inite": 8234,
      "oung": 8235,
      "media": 8236,
      "ĠVirgin": 8237,
      "Ġcities": 8238,
      ".</": 8239,
      "ĠCount": 8240,
      "chron": 8241,
      "ORD": 8242,
      "sen": 8243,
      "Ġclosely": 8244,
      "Ġbaseline": 8245,
      "ĠProgram": 8246,
      "ĠBack": 8247,
      "Ġbodies": 8248,
      "Ġscientific": 8249,
      "clear": 8250,
      "Ġwear": 8251,
      "Start": 8252,
      "Ġfloat": 8253,
      "Ġclar": 8254,
      "Ġ54": 8255,
      "ĠNone": 8256,
      "Ġsimult": 8257,
      "ogenesis": 8258,
      "conf": 8259,
      "zer": 8260,
      "Ġokay": 8261,
      "Hey": 8262,
      "uled": 8263,
      "Ġfet": 8264,
      "neg": 8265,
      "Ġfont": 8266,
      "Every": 8267,
      "Ġexceed": 8268,
      "Ġlegisl": 8269,
      "seud": 8270,
      "assert": 8271,
      "aneously": 8272,
      "ĠSociety": 8273,
      "Ġhonest": 8274,
      "equiv": 8275,
      "Ġwarn": 8276,
      "ĠÐ¼": 8277,
      "Ġdisput": 8278,
      "riev": 8279,
      "Ġwww": 8280,
      "Ġriver": 8281,
      "HS": 8282,
      "ĠCopyright": 8283,
      "Ġrequirement": 8284,
      "Ġasym": 8285,
      "CTION": 8286,
      "ulating": 8287,
      "Ġspeaking": 8288,
      "sd": 8289,
      "Ġboys": 8290,
      ",_": 8291,
      "pert": 8292,
      "ĠJustice": 8293,
      "Ġresponsibility": 8294,
      "Ġemission": 8295,
      "III": 8296,
      "inte": 8297,
      "bridge": 8298,
      "theless": 8299,
      "acket": 8300,
      "SON": 8301,
      "ĠJones": 8302,
      "ributions": 8303,
      "Ġestate": 8304,
      "ĠHy": 8305,
      "rac": 8306,
      "Ġhundreds": 8307,
      "ĠMinister": 8308,
      "enu": 8309,
      "Ġobservation": 8310,
      "ni": 8311,
      "Ġdangerous": 8312,
      "Â½": 8313,
      "Ġrid": 8314,
      "Ġdefic": 8315,
      "mL": 8316,
      "Ġcollabor": 8317,
      "Ļª": 8318,
      "Ġ51": 8319,
      "400": 8320,
      "Ġdisappe": 8321,
      "Ġamounts": 8322,
      "Ġwindows": 8323,
      "Property": 8324,
      "Ġbeam": 8325,
      "Ġchart": 8326,
      "Ġdesire": 8327,
      "isters": 8328,
      "umer": 8329,
      "ĠWednesday": 8330,
      "missions": 8331,
      "Ġprovision": 8332,
      "Ġpractices": 8333,
      "Ġsick": 8334,
      "Ġsheet": 8335,
      "Ġblocks": 8336,
      "pet": 8337,
      "Ġexplore": 8338,
      "ĠInformation": 8339,
      "buf": 8340,
      "Ġplaintiffs": 8341,
      "Ġplain": 8342,
      "uum": 8343,
      "Ġnoticed": 8344,
      "fonts": 8345,
      "Ġouter": 8346,
      "ĠChild": 8347,
      "Î¬": 8348,
      "outs": 8349,
      "Ġstructural": 8350,
      "Ġterminal": 8351,
      "ĠMount": 8352,
      "Ġconsumption": 8353,
      "DNA": 8354,
      "Ð½Ð¾": 8355,
      "Ġautomatically": 8356,
      "Ġseed": 8357,
      "wer": 8358,
      "ĠMel": 8359,
      "ĠED": 8360,
      "ĠÎ²": 8361,
      "Ġfunding": 8362,
      "Ġoch": 8363,
      "Ġcards": 8364,
      "ĠArab": 8365,
      "Ġoverl": 8366,
      "ĠPH": 8367,
      "Ġexamination": 8368,
      "ĠĠĠĠĠĠĠĠĠĠĠĠĠĠĠĠĠĠĠĠĠĠĠĠĠĠĠĠĠĠĠĠĠĠĠĠĠĠĠĠĠĠĠĠĠĠĠĠĠĠĠĠĠĠĠĠĠĠĠĠĠĠĠĠĠĠĠĠĠĠĠĠĠĠĠĠĠĠĠĠĠĠĠĠĠĠĠĠĠĠĠĠĠĠĠĠ": 8369,
      "ĠRoman": 8370,
      "Ġacadem": 8371,
      "LO": 8372,
      "ĠBas": 8373,
      "Ġlic": 8374,
      "\"),": 8375,
      "Ġintra": 8376,
      "ĠFre": 8377,
      "ĠMethod": 8378,
      "Ġsuccessfully": 8379,
      "Come": 8380,
      "ÂĤ": 8381,
      "bel": 8382,
      "Ġglucose": 8383,
      "next": 8384,
      "Ġassistance": 8385,
      "Ġkick": 8386,
      "ĠBet": 8387,
      "Ġfer": 8388,
      "His": 8389,
      "eper": 8390,
      "rehens": 8391,
      "Ġdrawn": 8392,
      "Ġpig": 8393,
      "Ġproportion": 8394,
      "})\\": 8395,
      "noon": 8396,
      "ĠDev": 8397,
      "Thank": 8398,
      "Ġoffense": 8399,
      "std": 8400,
      "Ġdiabetes": 8401,
      "minimal": 8402,
      "sup": 8403,
      "ĠSocial": 8404,
      "Ġlig": 8405,
      "Ġwriter": 8406,
      "afe": 8407,
      "Ġnegot": 8408,
      "Ġoffset": 8409,
      "Ġemployment": 8410,
      "Ġviolation": 8411,
      "display": 8412,
      "Ġske": 8413,
      "Ġconsists": 8414,
      "Ġsolve": 8415,
      "Ġfinish": 8416,
      "BM": 8417,
      "apache": 8418,
      "ĠStand": 8419,
      "mann": 8420,
      "odds": 8421,
      "-(": 8422,
      "Ġsuddenly": 8423,
      "Ġstem": 8424,
      "scrib": 8425,
      "Ġjustice": 8426,
      "Ġvivo": 8427,
      "img": 8428,
      "Ġpu": 8429,
      "Although": 8430,
      "čĊĠĠĠĠĠ": 8431,
      "ira": 8432,
      "sg": 8433,
      "Ġinnov": 8434,
      "rl": 8435,
      "Ġpreced": 8436,
      "Ġ101": 8437,
      "ĠJim": 8438,
      "ĠReview": 8439,
      "ona": 8440,
      "Ġ1996": 8441,
      "Ġfigures": 8442,
      "Ġarrang": 8443,
      "ĠCharles": 8444,
      "Ġseeking": 8445,
      "Ġaudience": 8446,
      "Number": 8447,
      "rible": 8448,
      "Ġvon": 8449,
      "Ġexperiences": 8450,
      "ĠIsland": 8451,
      "ĠWho": 8452,
      "Ġsignificance": 8453,
      "Ġ_{": 8454,
      "Right": 8455,
      "json": 8456,
      "Because": 8457,
      "Ġcars": 8458,
      "Ġmargin": 8459,
      "Ġreform": 8460,
      "Ġpoll": 8461,
      "ĠPy": 8462,
      "Ġmilk": 8463,
      "ĠEst": 8464,
      "âĢĶâĢĶ": 8465,
      "Ġveget": 8466,
      "Ġsky": 8467,
      "Ġsensor": 8468,
      "Gu": 8469,
      "Ġspaces": 8470,
      "friend": 8471,
      "Ġlen": 8472,
      "Ġembed": 8473,
      "Ġsenior": 8474,
      "inates": 8475,
      "tab": 8476,
      "ĠPCR": 8477,
      "Br": 8478,
      "Ġcausing": 8479,
      "*/": 8480,
      "ĠGrand": 8481,
      "Ġsubt": 8482,
      "Ġpit": 8483,
      "Us": 8484,
      "Ġvast": 8485,
      "Det": 8486,
      "ĠpH": 8487,
      "Ġlift": 8488,
      "Ġsomewhat": 8489,
      "ĠFile": 8490,
      "fit": 8491,
      "Ġbias": 8492,
      "Ġreducing": 8493,
      "Rem": 8494,
      "Ġalign": 8495,
      "Ð¾Ð¼": 8496,
      "Note": 8497,
      "vin": 8498,
      "Ġsupplement": 8499,
      "ao": 8500,
      "flu": 8501,
      "ĠDu": 8502,
      "}},": 8503,
      "NN": 8504,
      "Ġapparently": 8505,
      "AY": 8506,
      "Ġnerv": 8507,
      "Ġcompound": 8508,
      "ãģ¾": 8509,
      "writ": 8510,
      "Ġho": 8511,
      "Ġneurons": 8512,
      "Ġhurt": 8513,
      "Ġcu": 8514,
      "ifts": 8515,
      "Ġbrown": 8516,
      "prote": 8517,
      "ication": 8518,
      "control": 8519,
      "Î¿Ïħ": 8520,
      "Ġrecommended": 8521,
      "unit": 8522,
      "Ġinitially": 8523,
      "ĠMur": 8524,
      "Ġsupports": 8525,
      "avel": 8526,
      "Ġintegrated": 8527,
      "VD": 8528,
      "ĠFed": 8529,
      "Ġfamous": 8530,
      "uint": 8531,
      "ighter": 8532,
      "ĊĊĠĠĠĠĠĠĠĠĠĠĠĠĠĠĠĠĠĠĠĠĠĠĠĠĠĠĠĠĠĠĠĠ": 8533,
      "Ġacting": 8534,
      "west": 8535,
      "ensus": 8536,
      "zing": 8537,
      "erior": 8538,
      "').": 8539,
      "Ġdamages": 8540,
      "igan": 8541,
      "Ġpractical": 8542,
      "ductor": 8543,
      "Ġarmy": 8544,
      "Ġelectrical": 8545,
      "Spec": 8546,
      "template": 8547,
      "Ġclients": 8548,
      "Ġdelivered": 8549,
      "ivated": 8550,
      "000000": 8551,
      "iscuss": 8552,
      "Ġaccounts": 8553,
      "Ġvul": 8554,
      "Ġmic": 8555,
      "Ġatmosp": 8556,
      "Ġpairs": 8557,
      "Ġprimarily": 8558,
      "message": 8559,
      "prop": 8560,
      "BD": 8561,
      "]^.": 8562,
      "Ġdepos": 8563,
      "Ġimagine": 8564,
      "ĠLand": 8565,
      "Ġcompact": 8566,
      "png": 8567,
      "Ãĳ": 8568,
      "Ġfing": 8569,
      "Ġremoval": 8570,
      "Ġtargets": 8571,
      "urally": 8572,
      "Ġinternet": 8573,
      "Ġcoffee": 8574,
      "OH": 8575,
      "Ġkitchen": 8576,
      "Ġturning": 8577,
      "Ġsubset": 8578,
      ")|": 8579,
      "Ġsmile": 8580,
      "status": 8581,
      "ĠTem": 8582,
      "kes": 8583,
      "uable": 8584,
      "ados": 8585,
      "oder": 8586,
      "æĸ": 8587,
      "Ġweather": 8588,
      "}|": 8589,
      "Content": 8590,
      "Ġpromote": 8591,
      "erman": 8592,
      "Ġlocations": 8593,
      "obe": 8594,
      "ĠJava": 8595,
      "Ġaid": 8596,
      "Ġdesk": 8597,
      "ĠSpe": 8598,
      "Ġtells": 8599,
      "Ġrender": 8600,
      "rot": 8601,
      "2007": 8602,
      "2006": 8603,
      "documentclass": 8604,
      "Ġ[[": 8605,
      "find": 8606,
      "Ġresearchers": 8607,
      "dat": 8608,
      "Ġthermal": 8609,
      "ĠCOM": 8610,
      "Ġâī": 8611,
      "Ġrepresentative": 8612,
      "mediate": 8613,
      "Ġhotel": 8614,
      "Ġfighting": 8615,
      "Psi": 8616,
      "ictor": 8617,
      "Ġsugar": 8618,
      "rif": 8619,
      "Good": 8620,
      "hab": 8621,
      "Ġsurg": 8622,
      "align": 8623,
      "Ġprincipal": 8624,
      "vol": 8625,
      "${": 8626,
      "ysym": 8627,
      "ĠAtl": 8628,
      "null": 8629,
      "Ġflight": 8630,
      "Ġdescribes": 8631,
      "dec": 8632,
      "}\\,": 8633,
      ".-": 8634,
      "aft": 8635,
      "zo": 8636,
      "Ġdiscretion": 8637,
      "Ġinhibition": 8638,
      "Before": 8639,
      "module": 8640,
      "Ġpropag": 8641,
      "Ġclosest": 8642,
      "MM": 8643,
      "Ġamazing": 8644,
      "Ġgender": 8645,
      "atural": 8646,
      "ĠCamp": 8647,
      "haust": 8648,
      "Ġhet": 8649,
      "æĪ": 8650,
      "Ġmechanical": 8651,
      "ĠLee": 8652,
      "Ġdisplayed": 8653,
      "Ġoptimal": 8654,
      "Ġenhanced": 8655,
      "high": 8656,
      "ati": 8657,
      "scr": 8658,
      "ted": 8659,
      "Ġdust": 8660,
      "Ġstages": 8661,
      "Char": 8662,
      "ĠArmy": 8663,
      "Ġconcerning": 8664,
      "Other": 8665,
      "olecules": 8666,
      "Ġmonitoring": 8667,
      "Ġperspective": 8668,
      "ĠRoad": 8669,
      "Ġpump": 8670,
      "Ġadopted": 8671,
      "Ġpolitics": 8672,
      "iological": 8673,
      "Ġsir": 8674,
      "ĊČ": 8675,
      "Ġ53": 8676,
      "El": 8677,
      "iki": 8678,
      "ĠBob": 8679,
      "Ġfeedback": 8680,
      "ĠIF": 8681,
      "Point": 8682,
      "SO": 8683,
      "ĠMath": 8684,
      "Ġera": 8685,
      "Ġbought": 8686,
      "Ġinvolves": 8687,
      "Ġ99": 8688,
      "Ġspr": 8689,
      "Ġcoach": 8690,
      "Ġfant": 8691,
      "Ġinfo": 8692,
      "Last": 8693,
      "ĠProte": 8694,
      "Net": 8695,
      "Ġlies": 8696,
      "Ġalgebra": 8697,
      "ĠMartin": 8698,
      "}{-": 8699,
      "lang": 8700,
      "his": 8701,
      "ĠYOU": 8702,
      "**(": 8703,
      "Ġsurrounding": 8704,
      "cean": 8705,
      "Ġrepair": 8706,
      "orts": 8707,
      "Ġorganic": 8708,
      "Ġstrains": 8709,
      "ĠMedical": 8710,
      "Ġdram": 8711,
      "nut": 8712,
      "ĠÐ½Ð°": 8713,
      "ĠSign": 8714,
      "Ġhadn": 8715,
      "search": 8716,
      "ĠSO": 8717,
      "Ġok": 8718,
      "gener": 8719,
      "LR": 8720,
      "ĠEqu": 8721,
      "Ġmanage": 8722,
      "Ġminimal": 8723,
      "hydro": 8724,
      "Ġextends": 8725,
      "ĠFire": 8726,
      "ista": 8727,
      "ĠBE": 8728,
      "Ġja": 8729,
      "\\*\\*": 8730,
      "setlength": 8731,
      "John": 8732,
      "Ġcomo": 8733,
      "Ġchick": 8734,
      "oston": 8735,
      "wered": 8736,
      "lines": 8737,
      "Ġdemocr": 8738,
      "ellar": 8739,
      "Ġantibodies": 8740,
      "ĠRo": 8741,
      "ĠLos": 8742,
      ">(": 8743,
      ")+": 8744,
      "Ġdeploy": 8745,
      "Ġdual": 8746,
      "greek": 8747,
      "Ġlaun": 8748,
      "Ġregister": 8749,
      "Ġbigger": 8750,
      "sensors": 8751,
      "widehat": 8752,
      "Ġseg": 8753,
      "wa": 8754,
      "ĠLemma": 8755,
      "Ġrecon": 8756,
      "ĠWilliams": 8757,
      "ĠNon": 8758,
      "creen": 8759,
      "Ġpromot": 8760,
      "Ġprofession": 8761,
      "Ġsnow": 8762,
      "Ġhidden": 8763,
      "Ġwed": 8764,
      "aks": 8765,
      "stat": 8766,
      "Ġuncertain": 8767,
      "FO": 8768,
      "*^": 8769,
      "Ġbehaviour": 8770,
      "ĠMcC": 8771,
      "Ġwrt": 8772,
      "Ġescape": 8773,
      "summary": 8774,
      "weet": 8775,
      "Ġsector": 8776,
      "ups": 8777,
      "Ġfly": 8778,
      "inating": 8779,
      "client": 8780,
      "Ġcontainer": 8781,
      "liament": 8782,
      "Ġlots": 8783,
      "ĠAv": 8784,
      "Ġcarrying": 8785,
      "ĠRepublican": 8786,
      "Ð±": 8787,
      "Ġwealth": 8788,
      "Ġcoupling": 8789,
      "Ġsubs": 8790,
      "Ġanyway": 8791,
      "omething": 8792,
      "ĠÐ·": 8793,
      "Ġnu": 8794,
      "]$": 8795,
      "Ġpurs": 8796,
      "ĠMuslim": 8797,
      "amsmath": 8798,
      "ĠWall": 8799,
      "Ġbear": 8800,
      "ĠHuman": 8801,
      "ĠUs": 8802,
      "Ġhabit": 8803,
      "Ð¾Ð´": 8804,
      "Ġstone": 8805,
      "Ġsuf": 8806,
      "ila": 8807,
      "unte": 8808,
      "amss": 8809,
      "inux": 8810,
      "Ġresidents": 8811,
      "Ġdelet": 8812,
      "Ġexplanation": 8813,
      "}^{(": 8814,
      "Ġhorse": 8815,
      "Po": 8816,
      "endants": 8817,
      "Ġconstructed": 8818,
      "ws": 8819,
      "Ġspatial": 8820,
      "ensed": 8821,
      "amssymb": 8822,
      "bsy": 8823,
      "Ã¼r": 8824,
      "Ġsoil": 8825,
      "some": 8826,
      "rsfs": 8827,
      "mathrsfs": 8828,
      "Ġinjection": 8829,
      "Ġcontro": 8830,
      "ĠIra": 8831,
      "ffff": 8832,
      "byte": 8833,
      "amsfonts": 8834,
      "WH": 8835,
      "People": 8836,
      "Ġtumors": 8837,
      "Ġmaintained": 8838,
      "Ġabsolutely": 8839,
      "Ġlowest": 8840,
      "æĺ": 8841,
      "ĠCath": 8842,
      "Ġnewsp": 8843,
      "amsbsy": 8844,
      "Ġrent": 8845,
      "QU": 8846,
      "Ġcharacteristic": 8847,
      "Ġinstitution": 8848,
      "Ġweekend": 8849,
      "([": 8850,
      "Ġvide": 8851,
      "Ġcoast": 8852,
      "ĠOffic": 8853,
      "args": 8854,
      "eling": 8855,
      "riers": 8856,
      "Ġchapter": 8857,
      "values": 8858,
      "Ġplanet": 8859,
      "wasysym": 8860,
      "upgreek": 8861,
      "Ġyellow": 8862,
      "ĊĊĊĊĊ": 8863,
      "Ġru": 8864,
      "idemargin": 8865,
      "Ġmetast": 8866,
      "oddsidemargin": 8867,
      "Ġflux": 8868,
      "Ġcreation": 8869,
      "Ġrational": 8870,
      "Ġpicking": 8871,
      "Ġsad": 8872,
      "entry": 8873,
      "ĠAcc": 8874,
      "ICE": 8875,
      "Ġmedian": 8876,
      "Ġdriven": 8877,
      "Ġ1995": 8878,
      "aze": 8879,
      "Button": 8880,
      "Ġdebate": 8881,
      "context": 8882,
      "ayers": 8883,
      "Ġdeclared": 8884,
      "ori": 8885,
      "Ġclock": 8886,
      "CV": 8887,
      "Ġmail": 8888,
      "Ġorganizations": 8889,
      "called": 8890,
      "Ġcrisis": 8891,
      "Ġtasks": 8892,
      "Version": 8893,
      "Ġ\"\\": 8894,
      "ema": 8895,
      "ĠHospital": 8896,
      "008": 8897,
      "Ġamino": 8898,
      "Ġgrew": 8899,
      "Ġdiscovery": 8900,
      "isa": 8901,
      "abb": 8902,
      "Ag": 8903,
      "DB": 8904,
      "Ġremote": 8905,
      "util": 8906,
      "ĠSenate": 8907,
      "ABLE": 8908,
      "Ġodd": 8909,
      "Ġmenu": 8910,
      "ĠJersey": 8911,
      "allow": 8912,
      "Ġban": 8913,
      "Ġweapons": 8914,
      "Ġ---": 8915,
      "ĠPower": 8916,
      "Did": 8917,
      "Ġdollars": 8918,
      "Ġol": 8919,
      "Ġyouth": 8920,
      "Ġstrange": 8921,
      "ishment": 8922,
      "Ġdeaths": 8923,
      "âĢĺ": 8924,
      "Ġdetermining": 8925,
      "ĊĊĠĠ": 8926,
      "Ġoriginally": 8927,
      "Ġcultural": 8928,
      "Controller": 8929,
      "Ġisland": 8930,
      "Ġidentical": 8931,
      "Base": 8932,
      "Ġstead": 8933,
      "Eng": 8934,
      "Ġwest": 8935,
      "Ġsuperior": 8936,
      "ĠOld": 8937,
      "foot": 8938,
      "ĠPet": 8939,
      "ĊĠĠĠĠĠĠĠĠĠĠĠĠĠĠĠĠĠ": 8940,
      "achment": 8941,
      "Â®": 8942,
      "Ġevident": 8943,
      "Sm": 8944,
      "Ġemergency": 8945,
      "Ġclassical": 8946,
      "ova": 8947,
      "ĠMaybe": 8948,
      "orters": 8949,
      "ald": 8950,
      "ĠCL": 8951,
      "ali": 8952,
      "irable": 8953,
      "Ġfro": 8954,
      "Ġdinner": 8955,
      "Ġaccordance": 8956,
      "Ġsurve": 8957,
      "Ġknowing": 8958,
      "Ġprompt": 8959,
      "iana": 8960,
      "ÑĨ": 8961,
      "uv": 8962,
      "astern": 8963,
      "cers": 8964,
      "Ġbars": 8965,
      "ĠHenry": 8966,
      "Ġdifferential": 8967,
      "Ġrealize": 8968,
      "ĠTim": 8969,
      "150": 8970,
      "2001": 8971,
      "009": 8972,
      "ĠNE": 8973,
      "quare": 8974,
      "Client": 8975,
      "uster": 8976,
      "omatic": 8977,
      "Ġ59": 8978,
      "Ġshop": 8979,
      "Ġbind": 8980,
      "Ġrecognition": 8981,
      "Input": 8982,
      "Post": 8983,
      "Ġdisorder": 8984,
      "Ġbinary": 8985,
      "Ġwinter": 8986,
      "ĠMexico": 8987,
      "Ġ57": 8988,
      "Ġmask": 8989,
      "ĠAPI": 8990,
      "Ġemotional": 8991,
      "match": 8992,
      "Ġimmediate": 8993,
      "Ġ\\>": 8994,
      "Ġwine": 8995,
      "Ġprevalence": 8996,
      "Off": 8997,
      "BE": 8998,
      "onents": 8999,
      "Ġapopt": 9000,
      "Ġsports": 9001,
      "ĠWood": 9002,
      "Âµ": 9003,
      "Ġrect": 9004,
      "Ġcloud": 9005,
      "AF": 9006,
      "rium": 9007,
      "Ġpreparation": 9008,
      "Ġimplemented": 9009,
      "Ġfinds": 9010,
      "ĠSir": 9011,
      "Ġlaugh": 9012,
      "Ġpreferred": 9013,
      "\\]),": 9014,
      "Ġbio": 9015,
      "css": 9016,
      "Ġextend": 9017,
      "ĠNever": 9018,
      "Action": 9019,
      "isting": 9020,
      "Ġcontributions": 9021,
      "Ġment": 9022,
      "Ġpromise": 9023,
      "fections": 9024,
      "Ġdivision": 9025,
      "Script": 9026,
      ".âĢĻ": 9027,
      "ĠÎº": 9028,
      "show": 9029,
      "Gl": 9030,
      "ĠEduc": 9031,
      "////////////////": 9032,
      "ATA": 9033,
      "Dr": 9034,
      "Ġinequ": 9035,
      "rons": 9036,
      "Ġepisode": 9037,
      "icate": 9038,
      "Ġcalc": 9039,
      "Ġog": 9040,
      "uan": 9041,
      "DM": 9042,
      "Ġsed": 9043,
      "ĠSecurity": 9044,
      "anna": 9045,
      "Ġforming": 9046,
      "Ġwatched": 9047,
      "reatment": 9048,
      "Ġexcited": 9049,
      "Ġcategories": 9050,
      "IE": 9051,
      "ĠExt": 9052,
      "à®": 9053,
      "Ġenemy": 9054,
      "Ġafternoon": 9055,
      "Ġrespective": 9056,
      "ometimes": 9057,
      "Ġtrend": 9058,
      "Ġargue": 9059,
      "ĠChief": 9060,
      "Ġauthorities": 9061,
      "Ġthor": 9062,
      "Check": 9063,
      "ĠThree": 9064,
      "Ġworst": 9065,
      "Ġsynthesis": 9066,
      "ĠHome": 9067,
      "nc": 9068,
      "ĠJeff": 9069,
      "Ġseparated": 9070,
      "Ġflo": 9071,
      "strong": 9072,
      "Ġhelping": 9073,
      "ĠFil": 9074,
      "Ġtaste": 9075,
      "Ġhomes": 9076,
      "Ġregression": 9077,
      "è¿": 9078,
      "Ġhypothesis": 9079,
      "Ġdiameter": 9080,
      "Ġchest": 9081,
      "ÑĪ": 9082,
      "Phys": 9083,
      "Ġvit": 9084,
      "terior": 9085,
      "Ġrapidly": 9086,
      "ĠDC": 9087,
      "there": 9088,
      "iatric": 9089,
      "Ġobviously": 9090,
      "Ġopportunities": 9091,
      "Ġtip": 9092,
      "Ġessentially": 9093,
      "Ġye": 9094,
      "rolled": 9095,
      "Ġcircle": 9096,
      "Ġdogs": 9097,
      "Ġ1000": 9098,
      "Ġconsequences": 9099,
      "Ġspending": 9100,
      "Ġsuspect": 9101,
      ")]": 9102,
      "ĠANY": 9103,
      "010": 9104,
      "nger": 9105,
      "Ġtotally": 9106,
      "ĠSoftware": 9107,
      "bro": 9108,
      "ĠJournal": 9109,
      "ĠYet": 9110,
      "bu": 9111,
      "Rel": 9112,
      "Ġcorrectly": 9113,
      "lie": 9114,
      "lements": 9115,
      "Ġfraud": 9116,
      "otypes": 9117,
      "Ġvertical": 9118,
      "Ġmob": 9119,
      "everal": 9120,
      "Ġ\\{": 9121,
      "PM": 9122,
      "Ġeating": 9123,
      "Å¾": 9124,
      "Ġargued": 9125,
      "fraid": 9126,
      "expected": 9127,
      "Ġgenome": 9128,
      "Ġancient": 9129,
      "Ġpathways": 9130,
      "before": 9131,
      "Ġmeat": 9132,
      "number": 9133,
      "property": 9134,
      "Ġ58": 9135,
      "Ġpowers": 9136,
      "Ġmarketing": 9137,
      "1000": 9138,
      "Ġterrit": 9139,
      "Ġgift": 9140,
      "iser": 9141,
      "Ġultimately": 9142,
      "bles": 9143,
      "Ġgast": 9144,
      "Ġcentre": 9145,
      "ãģĭ": 9146,
      "Pat": 9147,
      "split": 9148,
      "ĠBY": 9149,
      "Dec": 9150,
      "DC": 9151,
      "android": 9152,
      "Ġnm": 9153,
      "even": 9154,
      "ipt": 9155,
      "Ġtheoret": 9156,
      "ĠAdditionally": 9157,
      "Ġoperators": 9158,
      "Ġoffering": 9159,
      "ĠÑĢ": 9160,
      "Ġ96": 9161,
      "Ġclassification": 9162,
      "sche": 9163,
      "Ġperipher": 9164,
      "Ġexecutive": 9165,
      "Ġ400": 9166,
      "ĠCup": 9167,
      "Ġneighborhood": 9168,
      "Ġ2020": 9169,
      "ĠMult": 9170,
      "Ġscal": 9171,
      "Ġanswers": 9172,
      "Ġdenote": 9173,
      "rition": 9174,
      "ĠControl": 9175,
      "Ġpin": 9176,
      "power": 9177,
      "Ġ1980": 9178,
      "Result": 9179,
      "MB": 9180,
      "umes": 9181,
      "ĠView": 9182,
      "Ġcandidates": 9183,
      "Ġdiffer": 9184,
      "Ġfinger": 9185,
      "Ġexamine": 9186,
      "Ġcro": 9187,
      "sign": 9188,
      "Ġfacilities": 9189,
      "CIT": 9190,
      "Ġcurves": 9191,
      "Ġfurn": 9192,
      "Ġfeels": 9193,
      "fd": 9194,
      "Ġbuildings": 9195,
      "Ġpip": 9196,
      "Ġmutations": 9197,
      "blog": 9198,
      "Ġ110": 9199,
      "Ġshel": 9200,
      "anol": 9201,
      "Ġafraid": 9202,
      "ÎŃ": 9203,
      "2005": 9204,
      "Ġsurgical": 9205,
      "ĠObject": 9206,
      "yst": 9207,
      "Ġtemperatures": 9208,
      "Ġincred": 9209,
      "vas": 9210,
      "Ø¯": 9211,
      "Ġassign": 9212,
      "}+\\": 9213,
      "Ġpermission": 9214,
      "Ġshoulder": 9215,
      "Ġeigen": 9216,
      "ochond": 9217,
      "ĠJul": 9218,
      "ĠĠĠĠĠĠĠĠĠĠĠĠĠĠĠĠĠĠĠĠĠĠĠĠĠĠĠĠ": 9219,
      "Ċĉĉĉĉĉĉ": 9220,
      "ĠHaw": 9221,
      "Ġassault": 9222,
      "Ĥ¬": 9223,
      "ĠPlan": 9224,
      "ĠProv": 9225,
      "iden": 9226,
      "Supplementary": 9227,
      "}/": 9228,
      "center": 9229,
      "Äħ": 9230,
      "rants": 9231,
      "Ġcapture": 9232,
      "ĠRT": 9233,
      "++)": 9234,
      "ĠHT": 9235,
      "ige": 9236,
      "Ġsyndrome": 9237,
      "Ġneutral": 9238,
      "Ġhate": 9239,
      "ĠThose": 9240,
[...]
